<unk>	0
<s>	0
</s>	0
▁t	-0
er	-1
in	-2
▁th	-3
▁a	-4
▁A	-5
on	-6
es	-7
▁o	-8
is	-9
at	-10
▁the	-11
en	-12
re	-13
▁c	-14
▁of	-15
▁p	-16
▁s	-17
al	-18
it	-19
an	-20
ion	-21
ic	-22
wer	-23
▁An	-24
▁in	-25
▁As	-26
swer	-27
▁Answer	-28
▁Ask	-29
▁f	-30
▁w	-31
ro	-32
ct	-33
be	-34
or	-35
▁d	-36
ed	-37
ing	-38
▁m	-39
ar	-40
▁is	-41
▁e	-42
▁an	-43
le	-44
▁D	-45
▁T	-46
▁E	-47
ri	-48
ent	-49
la	-50
▁Th	-51
▁this	-52
00	-53
▁to	-54
as	-55
▁b	-56
ve	-57
▁and	-58
cri	-59
escri	-60
escribe	-61
▁Describe	-62
xp	-63
om	-64
▁(	-65
ation	-66
▁I	-67
st	-68
..	-69
et	-70
lain	-71
xplain	-72
ur	-73
▁Explain	-74
▁h	-75
▁The	-76
▁l	-77
un	-78
▁be	-79
▁r	-80
▁g	-81
ly	-82
▁pro	-83
▁re	-84
ce	-85
us	-86
▁S	-87
il	-88
▁1	-89
em	-90
▁C	-91
▁=	-92
ul	-93
▁are	-94
▁n	-95
um	-96
ol	-97
▁P	-98
im	-99
ut	-100
qu	-101
▁for	-102
▁W	-103
id	-104
od	-105
ate	-106
▁con	-107
os	-108
ric	-109
th	-110
▁wh	-111
ity	-112
ch	-113
ow	-114
if	-115
ig	-116
ess	-117
▁as	-118
▁v	-119
▁2	-120
ction	-121
ment	-122
ter	-123
▁or	-124
du	-125
▁de	-126
ir	-127
▁In	-128
ant	-129
ra	-130
iv	-131
▁Wh	-132
ot	-133
▁M	-134
el	-135
⃗⃗	-136
ge	-137
and	-138
▁st	-139
▁F	-140
ect	-141
....	-142
▁su	-143
▁B	-144
▁on	-145
▁R	-146
▁inc	-147
▁com	-148
▁at	-149
▁en	-150
ater	-151
ith	-152
ers	-153
ere	-154
rom	-155
000	-156
▁by	-157
pp	-158
lect	-159
ave	-160
▁ma	-161
▁N	-162
▁al	-163
▁H	-164
est	-165
▁with	-166
▁co	-167
▁+	-168
ble	-169
▁ch	-170
ure	-171
ive	-172
▁it	-173
ical	-174
igh	-175
ci	-176
▁pric	-177
▁It	-178
am	-179
▁What	-180
▁can	-181
per	-182
ain	-183
emand	-184
ich	-185
ies	-186
▁produ	-187
ver	-188
act	-189
▁that	-190
reas	-191
ue	-192
▁which	-193
▁from	-194
ist	-195
▁•	-196
gy	-197
ad	-198
fer	-199
▁demand	-200
▁sh	-201
▁O	-202
con	-203
▁per	-204
und	-205
pt	-206
ag	-207
ill	-208
▁elect	-209
ine	-210
▁L	-211
ore	-212
▁us	-213
▁water	-214
ii	-215
art	-216
,000	-217
▁ex	-218
all	-219
ial	-220
▁price	-221
low	-222
ay	-223
▁equ	-224
ition	-225
vel	-226
▁&	-227
ergy	-228
ear	-229
▁y	-230
▁wave	-231
▁3	-232
▁po	-233
▁so	-234
ence	-235
▁res	-236
▁G	-237
ff	-238
▁comp	-239
ome	-240
able	-241
ud	-242
▁5	-243
▁dif	-244
▁le	-245
ard	-246
ens	-247
▁4	-248
▁ph	-249
ther	-250
te	-251
unt	-252
ated	-253
ank	-254
end	-255
▁la	-256
▁go	-257
▁val	-258
▁-	-259
▁sp	-260
▁increas	-261
ke	-262
ire	-263
cess	-264
ort	-265
▁energy	-266
▁supp	-267
▁dep	-268
▁met	-269
▁part	-270
res	-271
ber	-272
▁inter	-273
ces	-274
__	-275
ary	-276
ans	-277
ons	-278
▁0	-279
ous	-280
........	-281
▁qu	-282
▁cont	-283
conom	-284
▁we	-285
aus	-286
ple	-287
▁form	-288
lation	-289
▁fi	-290
▁This	-291
▁cons	-292
▁se	-293
ell	-294
ating	-295
ust	-296
▁un	-297
ap	-298
int	-299
▁exp	-300
erm	-301
ange	-302
▁year	-303
gh	-304
actor	-305
yst	-306
ime	-307
ual	-308
▁cost	-309
ight	-310
cc	-311
mo	-312
ub	-313
▁i	-314
ph	-315
▁If	-316
ult	-317
▁dis	-318
ys	-319
▁will	-320
▁me	-321
ance	-322
iz	-323
▁high	-324
so	-325
sion	-326
age	-327
▁not	-328
▁bo	-329
▁10	-330
▁em	-331
▁inf	-332
▁ad	-333
ax	-334
▁k	-335
our	-336
▁value	-337
rou	-338
▁cur	-339
ystem	-340
wo	-341
▁Pro	-342
uld	-343
⃗⃗⃗	-344
▁differ	-345
22	-346
▁–	-347
ics	-348
--	-349
▁other	-350
ates	-351
▁comm	-352
ould	-353
▁have	-354
▁li	-355
ck	-356
op	-357
ution	-358
▁supply	-359
de	-360
▁∂	-361
▁quant	-362
10	-363
▁rate	-364
▁partic	-365
▁there	-366
ese	-367
ress	-368
av	-369
ari	-370
ase	-371
pl	-372
▁econom	-373
▁two	-374
▁factor	-375
ree	-376
▁ne	-377
unction	-378
ak	-379
▁im	-380
▁Rs	-381
ffect	-382
ject	-383
▁So	-384
▁also	-385
ite	-386
▁mon	-387
ents	-388
ark	-389
▁wor	-390
▁int	-391
▁has	-392
▁was	-393
ding	-394
▁mo	-395
own	-396
▁time	-397
cul	-398
▁pre	-399
▁when	-400
pos	-401
▁used	-402
▁inv	-403
hod	-404
▁ab	-405
▁lo	-406
we	-407
ace	-408
ities	-409
ab	-410
▁more	-411
▁process	-412
orm	-413
ide	-414
iron	-415
its	-416
▁its	-417
▁good	-418
▁cor	-419
▁dec	-420
▁function	-421
▁De	-422
▁bank	-423
etic	-424
▁bet	-425
ach	-426
eng	-427
▁electr	-428
ween	-429
ener	-430
red	-431
ong	-432
▁state	-433
50	-434
▁should	-435
ium	-436
▁all	-437
iod	-438
▁between	-439
ss	-440
ise	-441
ength	-442
viron	-443
▁point	-444
▁equation	-445
ane	-446
▁level	-447
▁product	-448
port	-449
▁bec	-450
vironment	-451
rough	-452
▁vari	-453
rans	-454
▁giv	-455
cy	-456
atter	-457
ind	-458
ign	-459
▁different	-460
cal	-461
▁one	-462
▁out	-463
▁increase	-464
reci	-465
▁En	-466
mount	-467
arge	-468
alled	-469
ause	-470
ved	-471
▁Ex	-472
▁ag	-473
alcul	-474
▁their	-475
.1	-476
▁:	-477
▁num	-478
yp	-479
▁6	-480
▁quantity	-481
▁U	-482
arket	-483
▁may	-484
▁prices	-485
ame	-486
tain	-487
▁sur	-488
resent	-489
▁called	-490
ey	-491
dition	-492
▁amount	-493
▁change	-494
▁Q	-495
ry	-496
pert	-497
urn	-498
▁oil	-499
▁production	-500
ced	-501
ative	-502
▁income	-503
lud	-504
▁St	-505
▁he	-506
▁ass	-507
ose	-508
▁sub	-509
gan	-510
▁V	-511
gen	-512
ions	-513
▁pos	-514
	-515
▁fir	-516
▁metal	-517
2)	-518
____	-519
▁system	-520
▁light	-521
▁pl	-522
▁When	-523
der	-524
▁There	-525
▁they	-526
▁particle	-527
aterial	-528
ature	-529
ip	-530
netic	-531
ang	-532
▁than	-533
▁Com	-534
▁through	-535
ings	-536
▁like	-537
ven	-538
ctor	-539
▁sal	-540
ensity	-541
==	-542
ness	-543
▁tem	-544
arg	-545
▁period	-546
ac	-547
xed	-548
▁trans	-549
xim	-550
▁fol	-551
▁ref	-552
▁dist	-553
emical	-554
itt	-555
gine	-556
▁inflation	-557
.2	-558
ally	-559
▁sol	-560
▁surf	-561
length	-562
▁given	-563
▁interest	-564
se	-565
▁due	-566
▁spe	-567
▁law	-568
▁gener	-569
▁follow	-570
▁number	-571
▁material	-572
CO	-573
▁8	-574
▁−	-575
▁ac	-576
▁ve	-577
▁100	-578
eterm	-579
▁corro	-580
▁where	-581
ef	-582
cos	-583
ied	-584
up	-585
rin	-586
▁Con	-587
ser	-588
▁if	-589
reciation	-590
▁kn	-591
▁Ch	-592
▁und	-593
▁phot	-594
tern	-595
▁commod	-596
▁effect	-597
▁ii	-598
last	-599
ility	-600
ential	-601
ost	-602
▁di	-603
20	-604
▁const	-605
yd	-606
▁app	-607
▁project	-608
ency	-609
▁curve	-610
ific	-611
▁goods	-612
her	-613
▁act	-614
▁electric	-615
olo	-616
▁dire	-617
▁consum	-618
ass	-619
rol	-620
ants	-621
fin	-622
▁rad	-623
velop	-624
▁same	-625
▁market	-626
▁result	-627
▁wavelength	-628
▁ser	-629
▁typ	-630
▁maxim	-631
ible	-632
lastic	-633
cept	-634
ardness	-635
▁,	-636
▁method	-637
ures	-638
▁col	-639
ts	-640
▁over	-641
▁vector	-642
▁Inc	-643
▁opt	-644
▁such	-645
ms	-646
ations	-647
▁under	-648
eld	-649
ample	-650
▁They	-651
3)	-652
▁0.	-653
ments	-654
▁money	-655
rib	-656
vic	-657
raction	-658
ubric	-659
▁corrosion	-660
▁meas	-661
▁abo	-662
1)	-663
ep	-664
▁man	-665
▁environment	-666
▁because	-667
rinci	-668
▁requ	-669
ru	-670
cond	-671
ib	-672
lic	-673
vern	-674
▁et	-675
fore	-676
lass	-677
▁For	-678
aw	-679
xy	-680
▁am	-681
▁these	-682
▁invest	-683
ery	-684
ici	-685
ral	-686
▁Bank	-687
▁rep	-688
▁propert	-689
▁any	-690
arb	-691
▁gro	-692
▁but	-693
▁etc	-694
▁gas	-695
▁radi	-696
0,000	-697
▁These	-698
▁surface	-699
nual	-700
∇⃗⃗⃗	-701
put	-702
ife	-703
▁redu	-704
ational	-705
les	-706
▁boil	-707
▁diff	-708
▁×	-709
uel	-710
▁temper	-711
ash	-712
▁do	-713
▁ob	-714
cial	-715
▁pay	-716
ew	-717
▁up	-718
▁lead	-719
▁15	-720
▁includ	-721
di	-722
oy	-723
ering	-724
▁Su	-725
ages	-726
▁flow	-727
▁oper	-728
▁But	-729
▁years	-730
▁factors	-731
ound	-732
▁tra	-733
▁laser	-734
▁Re	-735
ffici	-736
▁term	-737
alys	-738
aste	-739
ission	-740
▁first	-741
▁acc	-742
RR	-743
ory	-744
▁determ	-745
▁into	-746
▁pla	-747
▁ret	-748
▁present	-749
▁then	-750
▁higher	-751
io	-752
ume	-753
▁Ca	-754
cent	-755
▁occ	-756
	-757
ish	-758
▁1.	-759
fter	-760
▁order	-761
),	-762
oc	-763
▁less	-764
2.	-765
vernment	-766
▁electrons	-767
▁K	-768
▁bas	-769
▁ind	-770
ources	-771
▁second	-772
ou	-773
ors	-774
▁med	-775
▁7	-776
	-777
ired	-778
ydro	-779
▁hel	-780
romag	-781
co	-782
100	-783
▁atom	-784
▁condition	-785
oll	-786
▁various	-787
▁following	-788
▁bu	-789
▁occur	-790
ram	-791
ends	-792
▁electron	-793
▁z	-794
▁Al	-795
▁On	-796
▁get	-797
▁phys	-798
▁three	-799
).	-800
▁inde	-801
alculate	-802
▁develop	-803
stit	-804
▁gra	-805
▁rem	-806
▁rise	-807
▁some	-808
ero	-809
ited	-810
reat	-811
alysis	-812
▁known	-813
▁import	-814
▁lubric	-815
▁→	-816
ider	-817
inal	-818
▁E⃗⃗	-819
▁pot	-820
val	-821
▁each	-822
gineering	-823
ps	-824
ident	-825
ract	-826
▁very	-827
▁work	-828
▁constant	-829
tal	-830
▁Res	-831
▁min	-832
▁only	-833
▁depos	-834
quid	-835
▁express	-836
................	-837
▁‘	-838
▁field	-839
▁low	-840
▁vol	-841
flation	-842
▁depreciation	-843
ular	-844
action	-845
11	-846
▁Dis	-847
▁defin	-848
ast	-849
ivid	-850
▁sell	-851
▁sour	-852
▁hardness	-853
▁reg	-854
▁case	-855
▁curr	-856
▁fixed	-857
▁commodity	-858
ech	-859
▁organ	-860
▁elastic	-861
▁increases	-862
par	-863
ude	-864
▁gr	-865
ption	-866
romagnetic	-867
5)	-868
▁[	-869
▁Ph	-870
dust	-871
▁tax	-872
ference	-873
ft	-874
ives	-875
▁life	-876
atur	-877
▁Cost	-878
4)	-879
----	-880
▁prof	-881
▁optical	-882
ertain	-883
▁total	-884
2,	-885
▁20	-886
ines	-887
▁end	-888
▁count	-889
osph	-890
▁waste	-891
ays	-892
▁ro	-893
▁chemical	-894
cl	-895
ule	-896
arbon	-897
▁)	-898
▁Mg	-899
mall	-900
rite	-901
Cl	-902
sol	-903
▁cap	-904
change	-905
▁temperature	-906
ves	-907
▁unit	-908
00,000	-909
▁no	-910
▁Max	-911
▁caus	-912
▁comb	-913
▁asset	-914
▁remain	-915
▁return	-916
▁potential	-917
ingle	-918
▁fiber	-919
▁servic	-920
,10	-921
ath	-922
▁He	-923
▁resources	-924
▁pur	-925
▁both	-926
cosystem	-927
▁19	-928
rice	-929
▁free	-930
▁small	-931
▁decreas	-932
▁CO	-933
ival	-934
uring	-935
12	-936
▁9	-937
are	-938
▁mag	-939
▁long	-940
▁class	-941
▁important	-942
▁“	-943
ized	-944
pect	-945
reak	-946
ulation	-947
▁property	-948
ribution	-949
equ	-950
ize	-951
ides	-952
▁government	-953
ood	-954
vent	-955
▁How	-956
ement	-957
▁Find	-958
duct	-959
▁Sol	-960
acter	-961
xygen	-962
▁power	-963
▁medium	-964
▁investment	-965
▁electromagnetic	-966
0.	-967
▁fuel	-968
ues	-969
ring	-970
▁disp	-971
▁prov	-972
▁contain	-973
SO	-974
▁>	-975
well	-976
itude	-977
▁most	-978
▁Maxwell	-979
AC	-980
▁sl	-981
erve	-982
ology	-983
▁must	-984
▁types	-985
▁economic	-986
▁required	-987
ploy	-988
▁large	-989
▁princi	-990
ile	-991
aves	-992
▁Thus	-993
▁direction	-994
1,	-995
gle	-996
▁scal	-997
▁measure	-998
omes	-999
▁remo	-1000
▁worth	-1001
1.	-1002
▁12	-1003
ital	-1004
▁tak	-1005
▁fall	-1006
▁liquid	-1007
icro	-1008
▁above	-1009
lu	-1010
▁J	-1011
▁hand	-1012
▁intensity	-1013
▁No	-1014
▁use	-1015
▁demanded	-1016
ie	-1017
▁x	-1018
cle	-1019
▁Elect	-1020
________	-1021
reatment	-1022
▁consider	-1023
iii	-1024
▁PW	-1025
▁cr	-1026
enef	-1027
▁current	-1028
▁exc	-1029
▁fil	-1030
▁rel	-1031
▁lower	-1032
▁Un	-1033
▁non	-1034
ording	-1035
▁altern	-1036
position	-1037
▁grating	-1038
ute	-1039
echn	-1040
▁Law	-1041
▁ear	-1042
▁index	-1043
ability	-1044
kx	-1045
one	-1046
▁We	-1047
▁Price	-1048
▁Write	-1049
ization	-1050
ack	-1051
ght	-1052
▁imp	-1053
▁means	-1054
ressure	-1055
▁maximum	-1056
▁By	-1057
▁est	-1058
▁cent	-1059
▁materials	-1060
▁elasticity	-1061
sh	-1062
vers	-1063
▁cat	-1064
▁diag	-1065
▁show	-1066
▁hydro	-1067
ared	-1068
atic	-1069
king	-1070
▁down	-1071
▁2.	-1072
▁sa	-1073
ining	-1074
▁single	-1075
▁Calculate	-1076
ode	-1077
▁radiation	-1078
requ	-1079
▁ris	-1080
▁angle	-1081
ron	-1082
▁1,	-1083
▁At	-1084
uation	-1085
▁equal	-1086
15	-1087
ublic	-1088
▁after	-1089
▁minim	-1090
aracter	-1091
▁calcul	-1092
ically	-1093
ator	-1094
ount	-1095
▁fin	-1096
▁line	-1097
ivalent	-1098
▁boiler	-1099
▁employ	-1100
▁indust	-1101
▁sc	-1102
▁Dep	-1103
▁cre	-1104
▁ent	-1105
	-1106
▁grou	-1107
▁ground	-1108
	-1109
old	-1110
fect	-1111
etary	-1112
▁difference	-1113
▁help	-1114
atural	-1115
▁suppl	-1116
▁economy	-1117
▁analysis	-1118
eo	-1119
of	-1120
▁av	-1121
vant	-1122
▁poss	-1123
▁physical	-1124
ward	-1125
▁ext	-1126
▁well	-1127
▁Income	-1128
▁produc	-1129
▁1)	-1130
atio	-1131
ving	-1132
▁need	-1133
3.	-1134
ake	-1135
uch	-1136
gical	-1137
ivity	-1138
▁ar	-1139
▁fig	-1140
▁cash	-1141
▁relation	-1142
▁Na	-1143
▁∇⃗⃗⃗	-1144
▁frequ	-1145
▁using	-1146
▁output	-1147
▁consumer	-1148
▁(1	-1149
ists	-1150
ration	-1151
▁chang	-1152
▁waves	-1153
▁diagram	-1154
▁diffraction	-1155
even	-1156
ries	-1157
▁add	-1158
▁ampl	-1159
▁made	-1160
▁Example	-1161
▁X	-1162
▁ox	-1163
ting	-1164
elect	-1165
▁reaction	-1166
▁sim	-1167
ional	-1168
▁control	-1169
▁emission	-1170
rop	-1171
eter	-1172
▁des	-1173
▁sit	-1174
redit	-1175
right	-1176
▁annual	-1177
▁volume	-1178
▁compound	-1179
...	-1180
ormal	-1181
▁been	-1182
:-	-1183
▁ra	-1184
▁buy	-1185
▁mass	-1186
reg	-1187
teg	-1188
ling	-1189
itted	-1190
ually	-1191
▁area	-1192
herent	-1193
▁terms	-1194
▁matter	-1195
▁economics	-1196
▁expression	-1197
▁μ	-1198
▁iii	-1199
▁From	-1200
▁Supp	-1201
▁below	-1202
▁accept	-1203
▁produced	-1204
▁ecosystem	-1205
)(	-1206
not	-1207
▁air	-1208
▁sod	-1209
	-1210
aving	-1211
▁comple	-1212
ollution	-1213
▁pressure	-1214
yl	-1215
▁pop	-1216
▁sch	-1217
other	-1218
▁stud	-1219
▁banks	-1220
▁source	-1221
▁.	-1222
▁λ	-1223
ick	-1224
pend	-1225
▁Reserve	-1226
▁depends	-1227
▁Indi	-1228
▁Demand	-1229
▁effici	-1230
▁maxima	-1231
▁general	-1232
vironmental	-1233
OH	-1234
ds	-1235
xt	-1236
rim	-1237
ton	-1238
▁abs	-1239
▁sin	-1240
ances	-1241
▁Cont	-1242
▁atoms	-1243
▁position	-1244
ixed	-1245
ruct	-1246
ividual	-1247
▁affect	-1248
▁profit	-1249
▁country	-1250
▁magnetic	-1251
%,	-1252
16	-1253
ai	-1254
	-1255
pon	-1256
ross	-1257
▁ful	-1258
eople	-1259
▁ions	-1260
▁Inter	-1261
▁states	-1262
▁defined	-1263
tic	-1264
▁To	-1265
0000	-1266
ever	-1267
ulph	-1268
▁Equ	-1269
itial	-1270
▁invol	-1271
▁combust	-1272
TE	-1273
lor	-1274
bers	-1275
uman	-1276
▁Water	-1277
▁occurs	-1278
.0	-1279
pal	-1280
ibri	-1281
▁Acc	-1282
▁Mon	-1283
▁sign	-1284
ibrium	-1285
ilibrium	-1286
ia	-1287
	-1288
▁OP	-1289
cies	-1290
very	-1291
▁compon	-1292
▁during	-1293
▁formed	-1294
▁exchange	-1295
▁incident	-1296
▁Inflation	-1297
▁formation	-1298
▁equivalent	-1299
▁2)	-1300
arri	-1301
ified	-1302
imens	-1303
ision	-1304
vantages	-1305
▁H⃗⃗⃗	-1306
▁acid	-1307
ternal	-1308
▁appro	-1309
▁would	-1310
itive	-1311
ocity	-1312
▁prop	-1313
ination	-1314
▁Therefore	-1315
▁development	-1316
▁equilibrium	-1317
als	-1318
▁cl	-1319
,10,	-1320
iver	-1321
▁ste	-1322
▁salts	-1323
▁short	-1324
▁cannot	-1325
▁direct	-1326
▁excited	-1327
▁variable	-1328
E⃗⃗	-1329
▁cal	-1330
▁net	-1331
▁who	-1332
▁does	-1333
▁parts	-1334
▁spect	-1335
▁techn	-1336
▁public	-1337
▁account	-1338
▁services	-1339
▁individual	-1340
urb	-1341
uture	-1342
▁size	-1343
▁them	-1344
ersion	-1345
▁benef	-1346
▁place	-1347
▁subst	-1348
▁super	-1349
lection	-1350
▁credit	-1351
▁character	-1352
ined	-1353
▁Sal	-1354
▁run	-1355
▁much	-1356
▁oxygen	-1357
▁photon	-1358
OD	-1359
az	-1360
▁j	-1361
air	-1362
▁New	-1363
▁eas	-1364
▁lim	-1365
solved	-1366
ractive	-1367
):	-1368
ases	-1369
▁agg	-1370
rease	-1371
▁zero	-1372
alance	-1373
▁scale	-1374
ological	-1375
▁deposits	-1376
▁solution	-1377
ful	-1378
ison	-1379
▁core	-1380
▁activ	-1381
▁ratio	-1382
▁includes	-1383
40	-1384
AN	-1385
yn	-1386
reen	-1387
▁IRR	-1388
▁Mod	-1389
▁Cons	-1390
▁leads	-1391
▁photons	-1392
▁produce	-1393
▁Environmental	-1394
alth	-1395
imes	-1396
ctane	-1397
round	-1398
▁compar	-1399
▁values	-1400
▁interference	-1401
ier	-1402
row	-1403
lace	-1404
ning	-1405
▁take	-1406
▁maint	-1407
▁micro	-1408
▁rings	-1409
▁theory	-1410
▁products	-1411
▁Engineering	-1412
▁engineering	-1413
bic	-1414
rig	-1415
▁Sh	-1416
2222	-1417
aila	-1418
oint	-1419
▁200	-1420
▁vel	-1421
▁along	-1422
▁population	-1423
500	-1424
ene	-1425
oss	-1426
▁Or	-1427
sing	-1428
▁alk	-1429
5,000	-1430
azard	-1431
iness	-1432
pared	-1433
▁beam	-1434
▁India	-1435
▁percent	-1436
▁conditions	-1437
=+	-1438
OA	-1439
osed	-1440
pose	-1441
unic	-1442
▁oils	-1443
ulated	-1444
▁start	-1445
▁Econom	-1446
▁expect	-1447
▁people	-1448
▁transm	-1449
ormation	-1450
▁generally	-1451
▁particular	-1452
▁commodities	-1453
▁eq	-1454
ritt	-1455
▁mod	-1456
tegral	-1457
▁shown	-1458
▁engine	-1459
▁equations	-1460
▁treatment	-1461
▁(2	-1462
▁(2)	-1463
▁sum	-1464
▁solid	-1465
▁theof	-1466
duction	-1467
▁availa	-1468
▁obtain	-1469
▁activities	-1470
▁Depreciation	-1471
wt	-1472
▁Y	-1473
ern	-1474
▁you	-1475
verse	-1476
▁find	-1477
▁shif	-1478
▁purch	-1479
▁aggreg	-1480
▁conver	-1481
lacement	-1482
▁supplied	-1483
PP	-1484
▁50	-1485
▁Ad	-1486
▁ei	-1487
▁set	-1488
▁many	-1489
istics	-1490
▁density	-1491
23	-1492
mm	-1493
▁cy	-1494
▁neg	-1495
endit	-1496
▁again	-1497
▁speed	-1498
ruction	-1499
▁contin	-1500
▁certain	-1501
▁organic	-1502
▁According	-1503
▁amplitude	-1504
▁combustion	-1505
.5	-1506
by	-1507
▁ε	-1508
out	-1509
▁op	-1510
▁saf	-1511
▁cell	-1512
▁disc	-1513
▁make	-1514
lected	-1515
▁about	-1516
▁shows	-1517
agement	-1518
▁metals	-1519
6)	-1520
7)	-1521
▁ψ	-1522
ody	-1523
rial	-1524
estic	-1525
▁Where	-1526
▁human	-1527
▁prepared	-1528
▁velocity	-1529
,?	-1530
ec	-1531
	-1532
uted	-1533
▁new	-1534
▁land	-1535
▁soil	-1536
▁space	-1537
▁stage	-1538
▁charge	-1539
▁aggregate	-1540
▁frequency	-1541
)=	-1542
ice	-1543
ump	-1544
▁Act	-1545
iment	-1546
▁soft	-1547
▁Gener	-1548
▁environmental	-1549
IC	-1550
me	-1551
mp	-1552
ily	-1553
och	-1554
ludge	-1555
▁cause	-1556
pective	-1557
stitute	-1558
▁represent	-1559
▁refractive	-1560
8)	-1561
ock	-1562
raw	-1563
olic	-1564
▁Met	-1565
▁pers	-1566
▁pres	-1567
▁rece	-1568
energy	-1569
▁absor	-1570
▁chain	-1571
▁cathod	-1572
enditure	-1573
▁Product	-1574
▁measures	-1575
14	-1576
30	-1577
gra	-1578
mon	-1579
▁10%	-1580
▁pet	-1581
ently	-1582
▁diam	-1583
▁pass	-1584
raight	-1585
▁(∇⃗⃗⃗	-1586
▁those	-1587
▁Newton	-1588
▁However	-1589
.,	-1590
AS	-1591
▁φ	-1592
ety	-1593
were	-1594
▁att	-1595
▁real	-1596
▁were	-1597
ferred	-1598
▁falls	-1599
▁phase	-1600
▁shift	-1601
▁while	-1602
▁becomes	-1603
▁capital	-1604
Na	-1605
RE	-1606
Rs	-1607
▁∇	-1608
▁	-1609
cip	-1610
▁Pb	-1611
ilar	-1612
iter	-1613
▁Per	-1614
ganic	-1615
ither	-1616
▁soap	-1617
▁takes	-1618
arginal	-1619
▁emitted	-1620
▁proport	-1621
▁principal	-1622
ty	-1623
get	-1624
ins	-1625
cing	-1626
idth	-1627
▁EAC	-1628
▁mole	-1629
▁phen	-1630
▁type	-1631
omestic	-1632
▁Annual	-1633
▁future	-1634
▁propag	-1635
▁efficiency	-1636
IS	-1637
	-1638
200	-1639
jor	-1640
▁Ag	-1641
otal	-1642
uous	-1643
▁ele	-1644
	-1645
oment	-1646
▁film	-1647
▁heat	-1648
erobic	-1649
reases	-1650
▁Banks	-1651
▁before	-1652
▁proble	-1653
▁electro	-1654
▁negative	-1655
▁possible	-1656
▁secondary	-1657
45	-1658
▁Sp	-1659
▁mg	-1660
lish	-1661
ship	-1662
▁(1)	-1663
▁2000	-1664
aneous	-1665
▁perfect	-1666
▁approach	-1667
NP	-1668
ok	-1669
water	-1670
▁path	-1671
▁what	-1672
itable	-1673
▁Waste	-1674
▁added	-1675
▁break	-1676
▁fring	-1677
▁group	-1678
▁common	-1679
▁changes	-1680
▁minimum	-1681
▁distribution	-1682
)2	-1683
▁sched	-1684
▁example	-1685
▁monetary	-1686
▁increasing	-1687
▁relationship	-1688
90	-1689
ism	-1690
▁Pre	-1691
▁cust	-1692
▁main	-1693
verage	-1694
▁charg	-1695
▁units	-1696
omentum	-1697
▁Factor	-1698
azardous	-1699
▁explain	-1700
▁natural	-1701
▁prevent	-1702
▁dissolved	-1703
ob	-1704
oid	-1705
uls	-1706
▁Ass	-1707
▁BOD	-1708
▁Here	-1709
▁earn	-1710
▁Break	-1711
▁State	-1712
▁gases	-1713
▁sales	-1714
▁batter	-1715
▁Hardness	-1716
▁particles	-1717
▁Qu	-1718
auss	-1719
iner	-1720
lack	-1721
▁unc	-1722
▁CaCO	-1723
▁food	-1724
▁Gauss	-1725
▁based	-1726
▁costs	-1727
▁major	-1728
▁sound	-1729
▁having	-1730
▁'	-1731
por	-1732
fill	-1733
mosph	-1734
▁mach	-1735
▁mult	-1736
▁oxid	-1737
attern	-1738
reater	-1739
▁width	-1740
▁compet	-1741
▁within	-1742
▁balance	-1743
▁integral	-1744
60	-1745
In	-1746
ON	-1747
ail	-1748
▁Co	-1749
igen	-1750
pton	-1751
▁prob	-1752
ercial	-1753
▁separ	-1754
▁depend	-1755
▁intern	-1756
fficient	-1757
▁Process	-1758
▁resultant	-1759
5.	-1760
cm	-1761
van	-1762
▁3.	-1763
====	-1764
aries	-1765
ening	-1766
icult	-1767
iverg	-1768
▁assum	-1769
▁being	-1770
▁estim	-1771
▁pattern	-1772
▁payments	-1773
▁presence	-1774
▁determine	-1775
▁components	-1776
▁expenditure	-1777
18	-1778
any	-1779
lad	-1780
ten	-1781
abil	-1782
▁250	-1783
▁Dif	-1784
▁Now	-1785
▁how	-1786
▁grow	-1787
▁allow	-1788
resents	-1789
▁uncertain	-1790
▁alternative	-1791
▁information	-1792
irc	-1793
rum	-1794
cium	-1795
vage	-1796
▁Let	-1797
▁off	-1798
▁inst	-1799
▁loss	-1800
▁graph	-1801
▁react	-1802
▁nature	-1803
▁removed	-1804
ivergence	-1805
▁distance	-1806
▁available	-1807
3,	-1808
xx	-1809
HCO	-1810
nes	-1811
▁ign	-1812
▁cour	-1813
▁reas	-1814
▁step	-1815
arrier	-1816
ipment	-1817
respon	-1818
▁Total	-1819
▁50,000	-1820
▁Determ	-1821
▁Market	-1822
▁sodium	-1823
▁sources	-1824
▁external	-1825
▁relative	-1826
▁straight	-1827
centration	-1828
▁situation	-1829
▁represents	-1830
▁displacement	-1831
he	-1832
ata	-1833
▁Pl	-1834
aces	-1835
isms	-1836
▁his	-1837
olicy	-1838
oreign	-1839
▁another	-1840
▁greater	-1841
ification	-1842
▁decreases	-1843
▁properties	-1844
EE	-1845
VC	-1846
sc	-1847
	-1848
cur	-1849
▁Ar	-1850
▁Se	-1851
▁B⃗⃗	-1852
▁Num	-1853
▁Typ	-1854
▁Comp	-1855
▁full	-1856
atures	-1857
oelect	-1858
rimary	-1859
▁course	-1860
▁custom	-1861
▁rising	-1862
▁subject	-1863
▁decision	-1864
▁positive	-1865
▁pollution	-1866
kes	-1867
▁25	-1868
▁iv	-1869
ises	-1870
omen	-1871
ynth	-1872
▁Net	-1873
▁par	-1874
irect	-1875
▁body	-1876
▁even	-1877
▁firm	-1878
umping	-1879
▁exist	-1880
▁right	-1881
▁normal	-1882
▁deposit	-1883
▁service	-1884
▁phenomen	-1885
▁projects	-1886
▁consumption	-1887
ld	-1888
−−	-1889
▁Sch	-1890
▁Sin	-1891
cipit	-1892
▁Wave	-1893
▁slit	-1894
charge	-1895
▁Fixed	-1896
▁chlor	-1897
▁Princi	-1898
▁caused	-1899
▁travel	-1900
▁Suppose	-1901
▁species	-1902
▁usually	-1903
▁momentum	-1904
▁precipit	-1905
▁increased	-1906
▁electrical	-1907
.8	-1908
ula	-1909
▁ax	-1910
▁mi	-1911
ires	-1912
ples	-1913
uble	-1914
▁flu	-1915
▁reco	-1916
▁spec	-1917
atives	-1918
▁banking	-1919
▁initial	-1920
▁compounds	-1921
▁difficult	-1922
▁effective	-1923
▁considered	-1924
edu	-1925
led	-1926
▁3)	-1927
▁br	-1928
ircu	-1929
▁deb	-1930
acity	-1931
▁Then	-1932
▁four	-1933
ladding	-1934
▁figure	-1935
▁central	-1936
▁photoelect	-1937
________________	-1938
80	-1939
▁;	-1940
eed	-1941
for	-1942
isf	-1943
umn	-1944
ilic	-1945
atisf	-1946
▁Fuel	-1947
▁done	-1948
▁know	-1949
50,000	-1950
▁exper	-1951
ructure	-1952
▁series	-1953
▁comparison	-1954
▁employment	-1955
ti	-1956
ARR	-1957
com	-1958
▁...	-1959
▁perm	-1960
▁plane	-1961
▁applic	-1962
▁sludge	-1963
imulated	-1964
▁quantum	-1965
essential	-1966
▁addition	-1967
▁marginal	-1968
▁divergence	-1969
▁lubricants	-1970
▁√	-1971
nel	-1972
▁16	-1973
▁Go	-1974
form	-1975
▁Cal	-1976
iform	-1977
waste	-1978
▁Trans	-1979
▁gives	-1980
▁dimens	-1981
▁moving	-1982
▁octane	-1983
▁refers	-1984
▁foreign	-1985
▁methods	-1986
unication	-1987
▁decrease	-1988
▁national	-1989
▁suitable	-1990
4,	-1991
AL	-1992
OM	-1993
▁θ	-1994
iew	-1995
ify	-1996
▁Me	-1997
ateg	-1998
eful	-1999
omet	-2000
orro	-2001
rict	-2002
▁10-	-2003
▁Sim	-2004
artic	-2005
iesel	-2006
▁Rate	-2007
▁mean	-2008
▁prot	-2009
urther	-2010
▁Under	-2011
▁infin	-2012
▁steam	-2013
,00,000	-2014
▁Energy	-2015
▁points	-2016
▁Compton	-2017
▁effects	-2018
▁payment	-2019
▁Analysis	-2020
▁National	-2021
▁diameter	-2022
▁customers	-2023
▁operation	-2024
eol	-2025
ike	-2026
▁ec	-2027
▁back	-2028
▁orig	-2029
▁forms	-2030
▁helps	-2031
▁obser	-2032
▁times	-2033
▁Method	-2034
▁Module	-2035
▁provide	-2036
▁fraction	-2037
▁principle	-2038
▁remaining	-2039
▁transition	-2040
QQ	-2041
▁Z	-2042
ont	-2043
sin	-2044
▁30	-2045
▁Bo	-2046
▁Ob	-2047
ough	-2048
read	-2049
▁beh	-2050
▁ray	-2051
ablish	-2052
econom	-2053
ritten	-2054
▁every	-2055
▁taxes	-2056
▁Effect	-2057
▁assets	-2058
▁carbon	-2059
▁dispers	-2060
▁Interest	-2061
▁internal	-2062
▁surfaces	-2063
▁correspon	-2064
▁processes	-2065
▁phenomenon	-2066
0.1	-2067
▁Fig	-2068
▁adj	-2069
▁eval	-2070
▁role	-2071
▁upon	-2072
▁basis	-2073
▁input	-2074
▁contains	-2075
▁functions	-2076
.7	-2077
2-	-2078
70	-2079
−=	-2080
ian	-2081
lie	-2082
ush	-2083
▁Le	-2084
chan	-2085
side	-2086
▁(3)	-2087
▁car	-2088
▁rub	-2089
unity	-2090
▁0.00	-2091
▁High	-2092
▁qual	-2093
▁impro	-2094
▁excess	-2095
▁mechan	-2096
▁reduce	-2097
▁weight	-2098
▁concept	-2099
▁thereby	-2100
▁consists	-2101
advantages	-2102
▁determined	-2103
SW	-2104
fine	-2105
▁MSW	-2106
▁fac	-2107
▁lay	-2108
iving	-2109
▁dark	-2110
▁decl	-2111
▁laws	-2112
▁pair	-2113
▁divid	-2114
▁wages	-2115
▁column	-2116
▁height	-2117
▁include	-2118
▁hydrogen	-2119
▁countries	-2120
▁essential	-2121
▁operating	-2122
3(	-2123
ted	-2124
▁∂2	-2125
anch	-2126
apor	-2127
rack	-2128
▁150	-2129
▁Why	-2130
▁cle	-2131
▁vis	-2132
▁Laws	-2133
▁Prof	-2134
▁Vari	-2135
▁give	-2136
▁rest	-2137
▁Hence	-2138
▁Since	-2139
▁among	-2140
▁black	-2141
▁categ	-2142
▁makes	-2143
▁causes	-2144
▁levels	-2145
▁purpose	-2146
▁reduces	-2147
▁results	-2148
▁written	-2149
▁establish	-2150
7,	-2151
94	-2152
▁Am	-2153
▁ke	-2154
aser	-2155
orem	-2156
ware	-2157
⃗⃗⃗⃗	-2158
▁Exp	-2159
▁lab	-2160
▁raw	-2161
▁axis	-2162
▁encl	-2163
▁poly	-2164
▁loans	-2165
▁study	-2166
▁sulph	-2167
usiness	-2168
▁physics	-2169
▁industrial	-2170
)?	-2171
.3	-2172
▁➢	-2173
rog	-2174
▁II	-2175
▁Ne	-2176
▁SO	-2177
apid	-2178
leum	-2179
▁cos	-2180
▁day	-2181
iding	-2182
ollut	-2183
▁goes	-2184
▁plan	-2185
▁resp	-2186
roleum	-2187
▁Types	-2188
▁local	-2189
▁range	-2190
cessary	-2191
▁easily	-2192
▁either	-2193
▁groups	-2194
▁satisf	-2195
▁useful	-2196
▁Propert	-2197
▁follows	-2198
▁inversion	-2199
▁superposition	-2200
+2	-2201
33	-2202
ER	-2203
qq	-2204
den	-2205
ner	-2206
▁FW	-2207
ided	-2208
ived	-2209
▁Man	-2210
▁har	-2211
▁suc	-2212
▁Comm	-2213
▁alkal	-2214
▁flows	-2215
▁hence	-2216
▁length	-2217
▁Control	-2218
▁content	-2219
▁greases	-2220
▁without	-2221
▁coherent	-2222
▁obtained	-2223
▁calculate	-2224
▁equipment	-2225
▁reactions	-2226
25	-2227
55	-2228
ION	-2229
▁Ac	-2230
▁bi	-2231
iven	-2232
rate	-2233
ucle	-2234
▁(0.	-2235
dient	-2236
venue	-2237
iteria	-2238
▁anode	-2239
▁rates	-2240
astable	-2241
tection	-2242
▁design	-2243
▁benefit	-2244
▁cathode	-2245
▁fringes	-2246
▁lubricant	-2247
▁differential	-2248
▁Disadvantages	-2249
.4	-2250
1(	-2251
▁<	-2252
▁Å	-2253
hib	-2254
ler	-2255
uss	-2256
▁Sc	-2257
▁te	-2258
chie	-2259
face	-2260
soci	-2261
▁Gra	-2262
ately	-2263
▁Plan	-2264
▁buil	-2265
▁hard	-2266
▁lime	-2267
▁slow	-2268
▁tend	-2269
▁achie	-2270
▁basic	-2271
▁indic	-2272
▁limit	-2273
▁associ	-2274
▁policy	-2275
▁resist	-2276
▁conduct	-2277
▁formula	-2278
▁protect	-2279
▁schedule	-2280
▁associated	-2281
▁continuous	-2282
▁proportion	-2283
▁temperatures	-2284
%)	-2285
75	-2286
OB	-2287
	-2288
ior	-2289
▁cm	-2290
▁eV	-2291
acro	-2292
ceed	-2293
ised	-2294
▁Non	-2295
▁der	-2296
▁iss	-2297
▁mem	-2298
▁red	-2299
anent	-2300
oring	-2301
posal	-2302
rical	-2303
▁Cash	-2304
▁Such	-2305
▁turn	-2306
ection	-2307
▁Phase	-2308
▁rises	-2309
▁Lubric	-2310
▁Natural	-2311
▁further	-2312
▁profits	-2313
▁related	-2314
stitution	-2315
▁Increase	-2316
▁Determine	-2317
▁Economics	-2318
▁Ecosystem	-2319
▁expressed	-2320
▁calculated	-2321
▁commercial	-2322
▁containing	-2323
▁respective	-2324
▁stimulated	-2325
▁alternatives	-2326
3)2	-2327
▁Cr	-2328
▁Fe	-2329
ites	-2330
▁box	-2331
argin	-2332
cling	-2333
inity	-2334
ivers	-2335
▁name	-2336
isture	-2337
ulsion	-2338
▁Hydro	-2339
▁Sales	-2340
▁molecul	-2341
▁pumping	-2342
▁quality	-2343
▁cladding	-2344
▁involves	-2345
▁experiment	-2346
▁technology	-2347
64	-2348
IA	-2349
QT	-2350
▁✓	-2351
800	-2352
alf	-2353
ert	-2354
oyn	-2355
▁Po	-2356
000(	-2357
less	-2358
roph	-2359
▁400	-2360
▁500	-2361
▁App	-2362
▁Sub	-2363
▁Tem	-2364
▁Poyn	-2365
▁conc	-2366
▁salt	-2367
▁temp	-2368
orific	-2369
▁Quant	-2370
▁Solid	-2371
▁often	-2372
vention	-2373
▁growth	-2374
▁region	-2375
▁against	-2376
▁company	-2377
▁Chemical	-2378
▁Poynting	-2379
▁complete	-2380
▁signific	-2381
▁metastable	-2382
Ca	-2383
400	-2384
app	-2385
erv	-2386
ink	-2387
riv	-2388
▁Em	-2389
▁Mo	-2390
▁k̂	-2391
hold	-2392
imin	-2393
ories	-2394
▁acts	-2395
▁data	-2396
▁your	-2397
▁Laser	-2398
▁enter	-2399
▁influ	-2400
▁stand	-2401
▁thick	-2402
organic	-2403
▁inputs	-2404
▁atmosph	-2405
▁causing	-2406
▁contact	-2407
▁mainten	-2408
▁Production	-2409
▁classified	-2410
▁characteristics	-2411
nn	-2412
,15	-2413
Brog	-2414
back	-2415
▁Cur	-2416
▁Its	-2417
▁ann	-2418
▁aut	-2419
▁det	-2420
▁nps	-2421
wards	-2422
▁Show	-2423
▁Some	-2424
isting	-2425
▁After	-2426
▁Fuels	-2427
▁Using	-2428
▁bound	-2429
▁finan	-2430
▁rapid	-2431
perture	-2432
▁diesel	-2433
▁safety	-2434
▁sample	-2435
▁average	-2436
▁special	-2437
▁systems	-2438
▁capacity	-2439
▁maintain	-2440
▁transfer	-2441
▁Generally	-2442
▁Pollution	-2443
▁producers	-2444
▁substances	-2445
9)	-2446
day	-2447
ott	-2448
▁GNP	-2449
▁dil	-2450
▁str	-2451
hibit	-2452
cosity	-2453
erical	-2454
idence	-2455
▁whose	-2456
▁bright	-2457
▁living	-2458
▁calcium	-2459
..........	-2460
▁consumers	-2461
34	-2462
OL	-2463
dl	-2464
uf	-2465
▁ĵ	-2466
---	-2467
10)	-2468
fic	-2469
oam	-2470
que	-2471
▁18	-2472
1000	-2473
ased	-2474
aust	-2475
ense	-2476
▁Int	-2477
▁Two	-2478
ather	-2479
ufact	-2480
▁MARR	-2481
▁left	-2482
▁lens	-2483
▁soda	-2484
▁vary	-2485
roding	-2486
▁Macro	-2487
▁catal	-2488
▁taken	-2489
▁trade	-2490
▁words	-2491
▁Number	-2492
▁hydroc	-2493
▁making	-2494
--------	-2495
▁boiling	-2496
▁uniform	-2497
▁expected	-2498
▁Schroding	-2499
▁organisms	-2500
▁petroleum	-2501
▁courseware	-2502
▁wastewater	-2503
▁probability	-2504
▁photoelectric	-2505
2+	-2506
NN	-2507
ox	-2508
▁$	-2509
	-2510
	-2511
	-2512
	-2513
ders	-2514
rous	-2515
ters	-2516
ural	-2517
utes	-2518
▁eng	-2519
otion	-2520
▁cool	-2521
▁fund	-2522
▁mixt	-2523
▁move	-2524
▁side	-2525
▁zeol	-2526
arding	-2527
ention	-2528
rivate	-2529
▁Gross	-2530
▁found	-2531
▁spont	-2532
	-2533
▁create	-2534
▁adverse	-2535
▁problem	-2536
inflation	-2537
ochemical	-2538
▁Domestic	-2539
▁business	-2540
▁measured	-2541
▁according	-2542
▁classical	-2543
▁necessary	-2544
▁therefore	-2545
............	-2546
▁maintenance	-2547
▁spontaneous	-2548
86	-2549
EM	-2550
dx	-2551
tt	-2552
Cos	-2553
▁60	-2554
▁Cy	-2555
▁ut	-2556
,15,	-2557
emat	-2558
irst	-2559
▁ion	-2560
▁tre	-2561
aking	-2562
ising	-2563
oline	-2564
olume	-2565
⃗⃗⃗⃗⃗	-2566
▁Phot	-2567
▁flux	-2568
ilarly	-2569
porary	-2570
▁Micro	-2571
▁raise	-2572
▁whole	-2573
Broglie	-2574
▁30,000	-2575
▁Define	-2576
▁branch	-2577
▁reason	-2578
▁Initial	-2579
▁Project	-2580
▁battery	-2581
▁collect	-2582
▁concern	-2583
	-2584
▁aperture	-2585
▁observed	-2586
▁specific	-2587
▁chemicals	-2588
▁producing	-2589
▁substitute	-2590
▁established	-2591
.15	-2592
opt	-2593
▁5)	-2594
▁che	-2595
▁opp	-2596
tific	-2597
▁Phys	-2598
▁bill	-2599
▁open	-2600
▁prom	-2601
▁rays	-2602
▁ring	-2603
ressed	-2604
ricult	-2605
▁Silic	-2606
▁sells	-2607
▁adjust	-2608
tificial	-2609
▁Develop	-2610
▁affects	-2611
▁barrier	-2612
▁mixture	-2613
▁respons	-2614
efficient	-2615
▁chlorine	-2616
▁enclosed	-2617
▁perfectly	-2618
▁Advantages	-2619
▁calculation	-2620
▁transmission	-2621
▁communication	-2622
▁concentration	-2623
2(	-2624
AB	-2625
En	-2626
PW	-2627
dV	-2628
▁q	-2629
avy	-2630
pro	-2631
▁Im	-2632
▁ev	-2633
▁ml	-2634
▁wt	-2635
otic	-2636
▁Der	-2637
▁Oil	-2638
▁Sod	-2639
▁adv	-2640
▁why	-2641
ences	-2642
imate	-2643
ropic	-2644
▁1000	-2645
▁dest	-2646
▁prog	-2647
▁rain	-2648
▁sett	-2649
▁comes	-2650
▁nucle	-2651
▁regul	-2652
article	-2653
osphate	-2654
racking	-2655
▁40,000	-2656
▁Indust	-2657
▁Oxygen	-2658
▁object	-2659
▁Factors	-2660
▁spectra	-2661
▁working	-2662
▁benefits	-2663
▁gradient	-2664
▁independ	-2665
▁infinite	-2666
▁involved	-2667
▁manufact	-2668
▁Similarly	-2669
▁hazardous	-2670
▁propagation	-2671
▁uncertainty	-2672
lo	-2673
▁Ψ	-2674
rit	-2675
▁0,	-2676
▁nm	-2677
▁∇2	-2678
H⃗⃗⃗	-2679
esis	-2680
gree	-2681
izes	-2682
like	-2683
road	-2684
uity	-2685
ways	-2686
▁Tax	-2687
▁dam	-2688
etane	-2689
orage	-2690
ticip	-2691
▁loan	-2692
amples	-2693
itives	-2694
▁glass	-2695
▁multi	-2696
romatic	-2697
▁Planck	-2698
▁buyers	-2699
iversity	-2700
▁discuss	-2701
▁engines	-2702
▁success	-2703
▁produces	-2704
▁stability	-2705
▁structure	-2706
▁Government	-2707
▁quantities	-2708
elf	-2709
inc	-2710
the	-2711
▁4)	-2712
▁Bi	-2713
▁IN	-2714
▁OF	-2715
▁ow	-2716
1212	-2717
imum	-2718
itch	-2719
utri	-2720
▁Cap	-2721
▁Ret	-2722
▁now	-2723
▁way	-2724
ected	-2725
ermal	-2726
stand	-2727
▁Main	-2728
▁gets	-2729
▁hold	-2730
▁play	-2731
▁safe	-2732
▁wide	-2733
avings	-2734
▁devic	-2735
▁ident	-2736
▁plant	-2737
athemat	-2738
▁Carbon	-2739
▁Obtain	-2740
▁extent	-2741
▁proper	-2742
▁disturb	-2743
▁selling	-2744
▁Electron	-2745
▁Variable	-2746
▁contents	-2747
▁discharge	-2748
▁estimated	-2749
▁Properties	-2750
▁respectively	-2751
,8	-2752
.6	-2753
95	-2754
▁/	-2755
700	-2756
ipt	-2757
ppm	-2758
▁Gas	-2759
▁Use	-2760
enses	-2761
▁bott	-2762
▁burn	-2763
▁feed	-2764
▁larg	-2765
▁valu	-2766
▁adopt	-2767
▁agent	-2768
▁areas	-2769
▁decom	-2770
▁resid	-2771
▁secur	-2772
▁contam	-2773
▁seller	-2774
▁perform	-2775
▁reflect	-2776
▁scatter	-2777
▁emulsion	-2778
▁spectrum	-2779
▁incidence	-2780
▁lubricating	-2781
BR	-2782
ES	-2783
go	-2784
mg	-2785
let	-2786
net	-2787
ope	-2788
ror	-2789
▁14	-2790
▁2,	-2791
▁ir	-2792
▁sw	-2793
2022	-2794
clus	-2795
pped	-2796
▁NPW	-2797
▁Rem	-2798
▁Spe	-2799
▁Val	-2800
ether	-2801
istic	-2802
▁Diff	-2803
▁debt	-2804
▁gain	-2805
▁lose	-2806
estion	-2807
▁Corro	-2808
▁Techn	-2809
▁carry	-2810
▁firms	-2811
▁wants	-2812
ilities	-2813
▁Profit	-2814
▁Return	-2815
▁adding	-2816
▁highly	-2817
▁radius	-2818
▁wealth	-2819
▁coating	-2820
▁depreci	-2821
▁distill	-2822
▁sellers	-2823
ollutants	-2824
▁directly	-2825
▁industry	-2826
▁provides	-2827
▁reducing	-2828
▁subjects	-2829
▁Principle	-2830
▁economies	-2831
▁financial	-2832
▁oxidation	-2833
▁substance	-2834
▁construction	-2835
93	-2836
NO	-2837
att	-2838
iss	-2839
grad	-2840
pper	-2841
▁Bas	-2842
alvan	-2843
lying	-2844
rates	-2845
▁fast	-2846
▁stat	-2847
▁want	-2848
▁wast	-2849
enefit	-2850
gether	-2851
icular	-2852
ishing	-2853
▁alloc	-2854
uations	-2855
▁Compar	-2856
▁become	-2857
▁larger	-2858
▁prepar	-2859
▁removal	-2860
▁require	-2861
▁theorem	-2862
▁Monetary	-2863
▁compared	-2864
▁purchase	-2865
▁together	-2866
pendicular	-2867
▁reflected	-2868
▁management	-2869
	-2870
lel	-2871
ote	-2872
▁ds	-2873
TETE	-2874
ened	-2875
eric	-2876
orts	-2877
ules	-2878
▁All	-2879
▁Cat	-2880
▁Key	-2881
▁Sur	-2882
allel	-2883
chang	-2884
count	-2885
ended	-2886
idity	-2887
iquid	-2888
uting	-2889
▁Land	-2890
▁Scal	-2891
▁anod	-2892
▁port	-2893
encies	-2894
inetic	-2895
▁Money	-2896
▁Value	-2897
▁avoid	-2898
▁store	-2899
▁world	-2900
icarbon	-2901
▁10,000	-2902
▁Keynes	-2903
▁Supply	-2904
▁descri	-2905
▁petrol	-2906
▁select	-2907
▁switch	-2908
▁undert	-2909
ynthesis	-2910
▁Silicon	-2911
▁ds⃗⃗⃗⃗⃗	-2912
▁element	-2913
▁inhibit	-2914
▁primary	-2915
▁reduced	-2916
▁employed	-2917
▁Institute	-2918
▁softening	-2919
istribution	-2920
▁categories	-2921
An	-2922
CV	-2923
NT	-2924
SP	-2925
ei	-2926
ex	-2927
tr	-2928
	-2929
lay	-2930
ord	-2931
sec	-2932
▁Ec	-2933
cles	-2934
ield	-2935
ouse	-2936
rons	-2937
udit	-2938
▁few	-2939
▁our	-2940
▁read	-2941
▁shar	-2942
▁layer	-2943
▁table	-2944
▁tends	-2945
ributed	-2946
▁minima	-2947
▁plants	-2948
▁plates	-2949
ometimes	-2950
▁boilers	-2951
▁divided	-2952
▁machine	-2953
▁salvage	-2954
▁achieved	-2955
▁producer	-2956
▁requires	-2957
▁declining	-2958
▁reduction	-2959
▁variation	-2960
▁protection	-2961
▁lubrication	-2962
▁perpendicular	-2963
)/	-2964
26	-2965
35	-2966
AT	-2967
CL	-2968
Th	-2969
bs	-2970
ee	-2971
ix	-2972
2.3	-2973
acu	-2974
cks	-2975
ets	-2976
ulf	-2977
▁4.	-2978
▁Dn	-2979
sive	-2980
▁Dec	-2981
▁Mar	-2982
▁One	-2983
▁sus	-2984
▁too	-2985
,000)	-2986
acuum	-2987
fully	-2988
▁Eval	-2989
▁Food	-2990
▁best	-2991
▁drop	-2992
▁iron	-2993
▁load	-2994
▁magn	-2995
▁wage	-2996
dimens	-2997
lement	-2998
▁Cycle	-2999
▁corre	-3000
▁earth	-3001
▁eigen	-3002
▁force	-3003
▁heavy	-3004
osphere	-3005
▁0.003(	-3006
▁Charge	-3007
▁beings	-3008
▁filter	-3009
▁health	-3010
▁monoch	-3011
▁scalar	-3012
▁spread	-3013
▁things	-3014
▁varies	-3015
▁Another	-3016
▁forming	-3017
▁smaller	-3018
economics	-3019
▁gasoline	-3020
▁parallel	-3021
▁Corrosion	-3022
▁developed	-3023
▁explained	-3024
▁industries	-3025
▁disturbance	-3026
▁represented	-3027
▁monochromatic	-3028
,/	-3029
.”	-3030
AW	-3031
▁%	-3032
ird	-3033
▁1/	-3034
▁gu	-3035
imal	-3036
push	-3037
umin	-3038
▁0.2	-3039
▁ill	-3040
▁ine	-3041
▁osc	-3042
eters	-3043
poses	-3044
▁5000	-3045
▁Cent	-3046
▁Redu	-3047
▁Time	-3048
▁prev	-3049
▁circu	-3050
▁frict	-3051
▁lines	-3052
▁mixed	-3053
▁oxide	-3054
alvanic	-3055
▁compos	-3056
▁modern	-3057
▁oscill	-3058
▁person	-3059
▁simple	-3060
▁remains	-3061
▁substit	-3062
▁Consider	-3063
▁problems	-3064
▁additives	-3065
▁component	-3066
▁inelastic	-3067
▁viscosity	-3068
▁absorption	-3069
▁percentage	-3070
▁competition	-3071
28	-3072
49	-3073
AP	-3074
DP	-3075
ho	-3076
▁∮	-3077
ask	-3078
▁DO	-3079
▁IT	-3080
quif	-3081
▁own	-3082
▁sem	-3083
▁tun	-3084
fined	-3085
veral	-3086
▁Each	-3087
▁MgCl	-3088
▁coll	-3089
▁cond	-3090
▁crit	-3091
▁curl	-3092
▁task	-3093
ferent	-3094
▁cycle	-3095
aerobic	-3096
▁Derive	-3097
▁Direct	-3098
▁rating	-3099
▁Salvage	-3100
▁complex	-3101
▁limited	-3102
▁rapidly	-3103
▁several	-3104
▁Equation	-3105
▁elements	-3106
▁moisture	-3107
▁question	-3108
▁Hazardous	-3109
▁magnitude	-3110
iodiversity	-3111
▁Management	-3112
▁Development	-3113
▁determining	-3114
(1	-3115
FC	-3116
gn	-3117
▁ρ	-3118
▁=?	-3119
bing	-3120
reme	-3121
▁Min	-3122
▁cho	-3123
charg	-3124
graph	-3125
ittle	-3126
▁conn	-3127
▁days	-3128
▁near	-3129
▁poor	-3130
▁	-3131
ending	-3132
oaming	-3133
soluble	-3134
▁20,000	-3135
▁Margin	-3136
▁always	-3137
▁fibers	-3138
▁little	-3139
▁wastes	-3140
▁Organic	-3141
▁charged	-3142
▁defines	-3143
▁members	-3144
▁private	-3145
▁1,00,000	-3146
▁Exchange	-3147
▁catalyst	-3148
▁included	-3149
▁provided	-3150
▁supplies	-3151
▁acceptance	-3152
▁atmosphere	-3153
RD	-3154
▁	-3155
	-3156
(0.	-3157
,7,	-3158
Sin	-3159
TER	-3160
The	-3161
col	-3162
ita	-3163
▁1?	-3164
▁40	-3165
▁80	-3166
▁pa	-3167
onom	-3168
▁(4)	-3169
▁(5)	-3170
▁Alk	-3171
▁Col	-3172
▁Pop	-3173
▁nit	-3174
▁⃗⃗⃗	-3175
Waste	-3176
erves	-3177
vered	-3178
▁100/	-3179
▁book	-3180
▁ruby	-3181
arbons	-3182
nesium	-3183
rophic	-3184
▁chequ	-3185
▁final	-3186
▁today	-3187
ression	-3188
▁Proble	-3189
▁inside	-3190
▁mainly	-3191
▁needed	-3192
▁origin	-3193
▁saving	-3194
▁Perfect	-3195
▁Special	-3196
▁possess	-3197
▁reserve	-3198
▁towards	-3199
▁criteria	-3200
▁domestic	-3201
▁Condition	-3202
▁calorific	-3203
▁including	-3204
▁securities	-3205
▁Diffraction	-3206
▁coefficient	-3207
-2	-3208
CH	-3209
MC	-3210
So	-3211
wh	-3212
urs	-3213
▁NO	-3214
	-3215
,10)	-3216
cule	-3217
ipts	-3218
year	-3219
▁EIA	-3220
▁EIS	-3221
▁hyd	-3222
▁say	-3223
▁sug	-3224
ector	-3225
ylene	-3226
▁keep	-3227
▁mode	-3228
▁sold	-3229
▁labor	-3230
▁monit	-3231
▁plate	-3232
▁steps	-3233
eration	-3234
oherent	-3235
ormally	-3236
urities	-3237
▁action	-3238
▁actual	-3239
▁longer	-3240
▁techni	-3241
▁tropic	-3242
▁Central	-3243
▁Surface	-3244
▁anticip	-3245
▁undergo	-3246
▁workers	-3247
▁Solution	-3248
▁ignition	-3249
▁operator	-3250
▁definition	-3251
▁ecological	-3252
.)	-3253
13	-3254
24	-3255
87	-3256
=1	-3257
nd	-3258
▁"	-3259
	-3260
	-3261
122	-3262
Com	-3263
min	-3264
use	-3265
▁5.	-3266
SION	-3267
ards	-3268
lets	-3269
lied	-3270
rolo	-3271
sect	-3272
view	-3273
▁5.1	-3274
▁Due	-3275
▁Est	-3276
▁Fil	-3277
▁Reg	-3278
▁beg	-3279
▁far	-3280
arily	-3281
haust	-3282
orrow	-3283
point	-3284
rated	-3285
ulate	-3286
▁6000	-3287
▁Meas	-3288
▁More	-3289
▁Perm	-3290
▁coal	-3291
▁half	-3292
▁happ	-3293
▁meet	-3294
▁thus	-3295
▁view	-3296
▁volt	-3297
20,000	-3298
abilit	-3299
▁First	-3300
▁beams	-3301
▁fuels	-3302
▁nutri	-3303
▁reach	-3304
angible	-3305
ediment	-3306
tration	-3307
▁Liquid	-3308
▁System	-3309
▁harmon	-3310
▁placed	-3311
▁raises	-3312
▁upward	-3313
▁vacuum	-3314
equation	-3315
▁Primary	-3316
▁amounts	-3317
▁charges	-3318
▁conserv	-3319
▁constit	-3320
▁improve	-3321
▁savings	-3322
▁agricult	-3323
▁bicarbon	-3324
▁changing	-3325
▁landfill	-3326
▁evaluation	-3327
▁application	-3328
▁independent	-3329
▁productivity	-3330
▁corresponding	-3331
56	-3332
bi	-3333
dt	-3334
ky	-3335
ll	-3336
anj	-3337
ead	-3338
ond	-3339
oth	-3340
war	-3341
▁-3	-3342
▁26	-3343
▁Au	-3344
▁el	-3345
▁er	-3346
▁gm	-3347
▁od	-3348
rete	-3349
▁0.5	-3350
▁1.5	-3351
▁800	-3352
▁Air	-3353
▁Dry	-3354
▁fas	-3355
▁put	-3356
ators	-3357
inary	-3358
ulfur	-3359
▁loop	-3360
▁scar	-3361
bility	-3362
▁Circu	-3363
▁Sulph	-3364
▁behav	-3365
▁cryst	-3366
▁issue	-3367
▁since	-3368
▁Theory	-3369
▁agents	-3370
▁closed	-3371
▁entire	-3372
▁expand	-3373
▁faster	-3374
function	-3375
ynthetic	-3376
▁finding	-3377
▁passing	-3378
▁revenue	-3379
▁satisfy	-3380
▁trapped	-3381
treatment	-3382
▁cathodic	-3383
▁referred	-3384
▁Character	-3385
▁generated	-3386
▁influence	-3387
geochemical	-3388
▁decreasing	-3389
▁inhibitors	-3390
82	-3391
NG	-3392
PF	-3393
xm	-3394
10%	-3395
QPP	-3396
bed	-3397
bre	-3398
dle	-3399
ict	-3400
off	-3401
▁5%	-3402
anes	-3403
▁0.0	-3404
▁Bef	-3405
▁Imp	-3406
▁Wor	-3407
▁dry	-3408
▁fla	-3409
▁nar	-3410
ables	-3411
avity	-3412
comes	-3413
echan	-3414
iddle	-3415
▁CaCl	-3416
▁With	-3417
▁next	-3418
▁recy	-3419
▁ways	-3420
esides	-3421
quifer	-3422
▁begin	-3423
▁carri	-3424
▁close	-3425
▁joint	-3426
▁model	-3427
▁simpl	-3428
clusive	-3429
▁Before	-3430
▁Second	-3431
▁appear	-3432
▁motion	-3433
▁opport	-3434
▁unions	-3435
equently	-3436
urbidity	-3437
▁aerobic	-3438
▁correct	-3439
▁devices	-3440
▁exchang	-3441
▁incomes	-3442
▁similar	-3443
▁accounts	-3444
▁rational	-3445
▁reserves	-3446
▁undertak	-3447
▁wavelets	-3448
iminishing	-3449
▁Sometimes	-3450
▁corrosive	-3451
▁numerical	-3452
▁transport	-3453
▁Technology	-3454
▁electronic	-3455
▁pollutants	-3456
▁resistance	-3457
▁composition	-3458
)-	-3459
63	-3460
AG	-3461
Ne	-3462
PO	-3463
Re	-3464
TR	-3465
pr	-3466
yt	-3467
qpp	-3468
uri	-3469
wor	-3470
▁Ro	-3471
▁es	-3472
▁kg	-3473
rams	-3474
vest	-3475
▁emb	-3476
▁imm	-3477
asing	-3478
duced	-3479
usion	-3480
▁Also	-3481
▁util	-3482
▁theis	-3483
▁vapor	-3484
▁Normal	-3485
▁Period	-3486
▁Solids	-3487
▁Volume	-3488
▁cycles	-3489
▁damage	-3490
▁fields	-3491
▁General	-3492
▁ability	-3493
▁assumed	-3494
▁leading	-3495
▁alkaline	-3496
▁describe	-3497
▁batteries	-3498
▁dimension	-3499
▁existence	-3500
▁molecular	-3501
▁positions	-3502
▁regarding	-3503
▁controlling	-3504
iogeochemical	-3505
17	-3506
2%	-3507
36	-3508
Fe	-3509
cp	-3510
”.	-3511
▁]	-3512
▁u	-3513
	-3514
2.4	-3515
AVC	-3516
ENT	-3517
way	-3518
(100	-3519
draw	-3520
ogen	-3521
rent	-3522
uate	-3523
yper	-3524
yram	-3525
▁10,	-3526
▁Amp	-3527
▁mis	-3528
iscal	-3529
stain	-3530
▁Disp	-3531
▁Draw	-3532
▁Flow	-3533
▁Lime	-3534
▁Stat	-3535
▁expl	-3536
▁five	-3537
▁gold	-3538
▁head	-3539
▁test	-3540
▁thin	-3541
,10,4)	-3542
irable	-3543
yramid	-3544
▁Noise	-3545
▁advan	-3546
▁arrow	-3547
▁miner	-3548
▁month	-3549
▁optic	-3550
▁sides	-3551
version	-3552
▁Ampere	-3553
▁Consum	-3554
▁Ground	-3555
▁Public	-3556
▁Screen	-3557
▁Sodium	-3558
▁aspect	-3559
▁degree	-3560
▁Average	-3561
▁Elastic	-3562
▁creates	-3563
▁sustain	-3564
▁whether	-3565
▁Economic	-3566
▁Function	-3567
▁Physical	-3568
▁building	-3569
▁contamin	-3570
▁discount	-3571
▁downward	-3572
▁molecule	-3573
▁multiple	-3574
▁Permanent	-3575
▁efficient	-3576
▁preferred	-3577
▁Electrical	-3578
▁Population	-3579
▁additional	-3580
▁collection	-3581
▁developing	-3582
▁dispersion	-3583
▁generation	-3584
▁compression	-3585
yperinflation	-3586
▁significance	-3587
,9	-3588
6(	-3589
ND	-3590
kT	-3591
ded	-3592
▁DD	-3593
▁SS	-3594
▁Us	-3595
▁ri	-3596
cour	-3597
erse	-3598
ytic	-3599
▁300	-3600
▁ens	-3601
▁fav	-3602
ciety	-3603
imode	-3604
pping	-3605
quare	-3606
▁1200	-3607
▁1500	-3608
▁draw	-3609
▁fail	-3610
▁puls	-3611
▁semi	-3612
ectors	-3613
▁clean	-3614
▁clear	-3615
▁decay	-3616
▁undes	-3617
posable	-3618
rinking	-3619
▁assume	-3620
▁narrow	-3621
▁proced	-3622
▁remove	-3623
▁solids	-3624
▁sulfur	-3625
▁tunnel	-3626
▁annuity	-3627
▁studies	-3628
▁original	-3629
▁strength	-3630
▁surround	-3631
▁dispersed	-3632
▁mechanical	-3633
▁Schrodinger	-3634
▁institution	-3635
▁interaction	-3636
▁opportunity	-3637
▁hydrocarbons	-3638
(0	-3639
4-	-3640
EL	-3641
II	-3642
ne	-3643
og	-3644
−	-3645
B⃗⃗	-3646
ann	-3647
oxy	-3648
tiE	-3649
vex	-3650
vol	-3651
▁1:	-3652
▁ep	-3653
	-3654
	-3655
ABOA	-3656
OAOB	-3657
agul	-3658
ales	-3659
gest	-3660
raun	-3661
sequ	-3662
vice	-3663
wise	-3664
▁Bec	-3665
▁Par	-3666
▁You	-3667
▁aim	-3668
▁eth	-3669
▁rup	-3670
▁smo	-3671
0000(	-3672
4,000	-3673
anges	-3674
posed	-3675
▁3000	-3676
▁Inst	-3677
▁MgSO	-3678
▁NaOH	-3679
▁Remo	-3680
▁agre	-3681
▁easy	-3682
▁here	-3683
▁rele	-3684
▁uses	-3685
▁weak	-3686
elling	-3687
quatic	-3688
▁Alkal	-3689
▁Green	-3690
▁Spect	-3691
▁Super	-3692
▁Which	-3693
▁cases	-3694
▁fibre	-3695
▁gross	-3696
▁intro	-3697
▁steel	-3698
develop	-3699
essment	-3700
▁Cathod	-3701
▁Temper	-3702
▁alumin	-3703
▁answer	-3704
▁bacter	-3705
▁except	-3706
▁fringe	-3707
▁linear	-3708
▁mostly	-3709
▁Atmosph	-3710
▁Because	-3711
▁Capital	-3712
▁Effects	-3713
▁Electro	-3714
▁desired	-3715
▁kinetic	-3716
▁meaning	-3717
▁payback	-3718
▁reasons	-3719
▁sliding	-3720
▁subsequ	-3721
▁voltage	-3722
▁Hydrogen	-3723
▁Industry	-3724
▁Mathemat	-3725
▁harmonic	-3726
▁receipts	-3727
▁residual	-3728
▁Intensity	-3729
▁Treatment	-3730
▁adversely	-3731
▁intersect	-3732
▁otherwise	-3733
▁Wavelength	-3734
▁ecosystems	-3735
▁prevention	-3736
▁Temperature	-3737
▁combination	-3738
▁dimensional	-3739
▁responsible	-3740
▁Macroeconomics	-3741
HS	-3742
dB	-3743
,00	-3744
,8,	-3745
edi	-3746
ull	-3747
xic	-3748
▁-2	-3749
▁3,	-3750
▁90	-3751
▁tr	-3752
ativ	-3753
burs	-3754
gion	-3755
rang	-3756
ream	-3757
▁Lap	-3758
▁PbO	-3759
▁Rob	-3760
▁big	-3761
▁bon	-3762
▁don	-3763
▁hot	-3764
atory	-3765
auses	-3766
organ	-3767
▁bear	-3768
▁wind	-3769
▁Basic	-3770
▁Class	-3771
▁emuls	-3772
▁third	-3773
reshold	-3774
▁Causes	-3775
▁Invest	-3776
▁anodic	-3777
▁around	-3778
▁center	-3779
▁colour	-3780
▁screen	-3781
▁stored	-3782
inerator	-3783
▁Present	-3784
▁embritt	-3785
gradation	-3786
▁Cracking	-3787
▁Quantity	-3788
▁coatings	-3789
▁disposal	-3790
▁machines	-3791
▁normally	-3792
▁operates	-3793
▁utilized	-3794
▁Reduction	-3795
▁depending	-3796
▁electroly	-3797
▁inorganic	-3798
▁presented	-3799
▁purchased	-3800
▁scattered	-3801
▁Comparison	-3802
▁accounting	-3803
▁consisting	-3804
▁facilities	-3805
▁impurities	-3806
edimentation	-3807
▁competitive	-3808
▁inflationary	-3809
▁requirements	-3810
▁embrittlement	-3811
)]	-3812
.9	-3813
2=	-3814
77	-3815
Ni	-3816
iO	-3817
kg	-3818
kk	-3819
kz	-3820
pm	-3821
sm	-3822
vi	-3823
▁α	-3824
150	-3825
ANT	-3826
UBR	-3827
URE	-3828
ape	-3829
sid	-3830
tep	-3831
▁7.	-3832
▁Cl	-3833
▁FI	-3834
▁fe	-3835
▁ho	-3836
▁pe	-3837
000-	-3838
QPPQ	-3839
aday	-3840
cell	-3841
▁	-3842
e	-3843
i	-3844
t	-3845
s	-3846
n	-3847
a	-3848
r	-3849
o	-3850
c	-3851
l	-3852
h	-3853
d	-3854
u	-3855
p	-3856
m	-3857
f	-3858
:	-3859
w	-3860
A	-3861
g	-3862
b	-3863
y	-3864
.	-3865
k	-3866
v	-3867
0	-3868
,	-3869
x	-3870
E	-3871
)	-3872
2	-3873
T	-3874
D	-3875
1	-3876
(	-3877
I	-3878
?	-3879
C	-3880
=	-3881
P	-3882
S	-3883
-	-3884
5	-3885
W	-3886
q	-3887
O	-3888
3	-3889
⃗	-3890
R	-3891
N	-3892
4	-3893
F	-3894
B	-3895
H	-3896
M	-3897
+	-3898
/	-3899
L	-3900
6	-3901
8	-3902
z	-3903
7	-3904
G	-3905
•	-3906
9	-3907
’	-3908
&	-3909
V	-3910
j	-3911
%	-3912
−	-3913
_	-3914
Q	-3915
	-3916
–	-3917
U	-3918
∂	-3919
	-3920
	-3921
∇	-3922
	-3923
→	-3924
'	-3925
K	-3926
;	-3927
μ	-3928
	-3929
	-3930
×	-3931
Y	-3932
>	-3933
X	-3934
λ	-3935
[	-3936
φ	-3937
]	-3938
	-3939
	-3940
‘	-3941
	-3942
J	-3943
“	-3944
ε	-3945
”	-3946
θ	-3947
Z	-3948
	-3949
ψ	-3950
	-3951
<	-3952
π	-3953
*	-3954
	-3955
	-3956
$	-3957
ν	-3958
√	-3959
¬	-3960
	-3961
̂	-3962
ω	-3963
	-3964
	-3965
Å	-3966
	-3967
	-3968
	-3969
	-3970
	-3971
	-3972
"	-3973
	-3974
î	-3975
σ	-3976
ĵ	-3977
➢	-3978
	-3979
	-3980
	-3981
✓	-3982
	-3983
Ψ	-3984
°	-3985
	-3986
	-3987
	-3988
	-3989
ρ	-3990
	-3991
α	-3992
	-3993
∮	-3994
	-3995
~	-3996
