<unk>	0
<s>	0
</s>	0
in	-0
er	-1
▁t	-2
▁a	-3
he	-4
▁A	-5
on	-6
▁o	-7
re	-8
▁the	-9
at	-10
en	-11
▁c	-12
is	-13
▁of	-14
▁p	-15
▁s	-16
es	-17
al	-18
la	-19
it	-20
▁E	-21
ic	-22
ion	-23
an	-24
▁in	-25
wer	-26
▁An	-27
▁As	-28
▁f	-29
swer	-30
▁Answer	-31
▁Ask	-32
▁w	-33
xp	-34
ro	-35
ct	-36
▁b	-37
▁d	-38
or	-39
ed	-40
xpla	-41
xplain	-42
▁Explain	-43
ing	-44
▁is	-45
▁m	-46
▁an	-47
▁e	-48
le	-49
ar	-50
▁T	-51
ent	-52
00	-53
▁to	-54
as	-55
▁and	-56
ve	-57
om	-58
▁(	-59
ation	-60
▁I	-61
et	-62
st	-63
▁The	-64
▁re	-65
..	-66
ou	-67
▁th	-68
▁g	-69
▁l	-70
ly	-71
▁pro	-72
ce	-73
▁h	-74
▁de	-75
▁=	-76
▁are	-77
▁S	-78
▁1	-79
▁C	-80
il	-81
▁n	-82
▁be	-83
um	-84
im	-85
▁P	-86
ur	-87
ol	-88
▁W	-89
▁for	-90
qu	-91
ra	-92
id	-93
ut	-94
od	-95
us	-96
ric	-97
her	-98
▁con	-99
ig	-100
os	-101
ate	-102
un	-103
ity	-104
if	-105
ow	-106
ment	-107
▁as	-108
ul	-109
ot	-110
▁or	-111
▁v	-112
du	-113
▁2	-114
ction	-115
ter	-116
ch	-117
iv	-118
ge	-119
▁In	-120
▁D	-121
▁r	-122
ir	-123
▁st	-124
....	-125
and	-126
▁su	-127
⃗⃗	-128
▁M	-129
ect	-130
ant	-131
▁B	-132
▁F	-133
▁on	-134
▁inc	-135
▁com	-136
▁at	-137
▁R	-138
▁en	-139
ater	-140
ure	-141
ess	-142
el	-143
000	-144
▁by	-145
rom	-146
pp	-147
▁wh	-148
ith	-149
lect	-150
▁ma	-151
ers	-152
ave	-153
▁N	-154
▁+	-155
▁al	-156
▁Wh	-157
▁with	-158
ies	-159
▁H	-160
ble	-161
em	-162
▁What	-163
ical	-164
▁it	-165
res	-166
▁pric	-167
ive	-168
ial	-169
am	-170
est	-171
▁-	-172
nt	-173
per	-174
▁can	-175
igh	-176
▁It	-177
▁that	-178
ich	-179
th	-180
▁produ	-181
act	-182
ver	-183
reas	-184
▁which	-185
ain	-186
ore	-187
ost	-188
ue	-189
▁dem	-190
ist	-191
▁ch	-192
▁from	-193
▁demand	-194
gy	-195
▁la	-196
fer	-197
▁per	-198
▁O	-199
con	-200
▁elect	-201
hen	-202
▁us	-203
se	-204
pt	-205
ill	-206
▁water	-207
ine	-208
ci	-209
▁L	-210
art	-211
,000	-212
▁ex	-213
▁sh	-214
all	-215
▁price	-216
▁un	-217
ii	-218
sion	-219
low	-220
▁equ	-221
ergy	-222
ition	-223
vel	-224
▁&	-225
here	-226
▁Th	-227
ag	-228
▁wave	-229
▁y	-230
ib	-231
▁po	-232
▁res	-233
ear	-234
ome	-235
▁G	-236
▁3	-237
▁comp	-238
ff	-239
ay	-240
de	-241
our	-242
ard	-243
▁le	-244
▁5	-245
ated	-246
▁dif	-247
able	-248
ence	-249
ight	-250
▁go	-251
te	-252
ank	-253
ount	-254
▁4	-255
ad	-256
▁val	-257
▁supp	-258
▁increas	-259
end	-260
ke	-261
__	-262
▁sp	-263
ther	-264
ire	-265
▁met	-266
▁energy	-267
cess	-268
▁dep	-269
ort	-270
▁part	-271
▁inter	-272
ary	-273
▁0	-274
op	-275
ces	-276
........	-277
▁we	-278
▁ra	-279
ere	-280
▁qu	-281
aus	-282
▁cont	-283
ange	-284
lation	-285
age	-286
▁ph	-287
nd	-288
int	-289
▁form	-290
ons	-291
▁se	-292
actor	-293
ating	-294
ell	-295
conom	-296
ual	-297
ous	-298
ans	-299
▁If	-300
ub	-301
ime	-302
ys	-303
▁This	-304
▁cons	-305
▁year	-306
▁exp	-307
ust	-308
▁am	-309
ld	-310
erm	-311
cc	-312
yst	-313
▁cost	-314
iz	-315
▁i	-316
▁not	-317
▁dis	-318
ap	-319
ult	-320
▁he	-321
▁will	-322
▁me	-323
▁inf	-324
ance	-325
ens	-326
▁so	-327
▁10	-328
▁k	-329
so	-330
▁other	-331
ax	-332
▁em	-333
der	-334
rou	-335
ac	-336
22	-337
▁value	-338
▁cur	-339
▁ad	-340
▁Pro	-341
ates	-342
▁comm	-343
--	-344
▁differ	-345
▁supply	-346
ystem	-347
imp	-348
ding	-349
▁this	-350
▁there	-351
wo	-352
▁∂	-353
ution	-354
10	-355
ium	-356
▁rate	-357
ree	-358
▁quant	-359
▁have	-360
▁partic	-361
av	-362
⃗⃗⃗	-363
lu	-364
ari	-365
ics	-366
ould	-367
▁factor	-368
▁li	-369
ak	-370
ase	-371
▁ne	-372
di	-373
gh	-374
▁econom	-375
ark	-376
▁mon	-377
▁wor	-378
▁two	-379
unction	-380
ec	-381
ject	-382
▁int	-383
ber	-384
ffect	-385
▁when	-386
▁was	-387
▁time	-388
▁also	-389
hod	-390
reci	-391
▁ab	-392
▁Rs	-393
▁used	-394
▁inv	-395
▁pres	-396
ace	-397
▁pla	-398
own	-399
oc	-400
ities	-401
ph	-402
ite	-403
ose	-404
ix	-405
▁good	-406
pl	-407
▁more	-408
ple	-409
▁bank	-410
▁So	-411
we	-412
ide	-413
ab	-414
▁has	-415
▁dec	-416
orm	-417
iron	-418
its	-419
▁cor	-420
▁process	-421
ep	-422
red	-423
▁electr	-424
▁:	-425
ents	-426
▁state	-427
ener	-428
▁its	-429
ong	-430
etwe	-431
▁imp	-432
▁function	-433
▁product	-434
▁sc	-435
iod	-436
50	-437
etween	-438
ise	-439
ature	-440
▁point	-441
▁all	-442
hem	-443
▁bec	-444
gth	-445
lar	-446
▁vari	-447
ss	-448
▁between	-449
viron	-450
etic	-451
▁one	-452
▁level	-453
rough	-454
vironment	-455
▁equation	-456
ound	-457
▁out	-458
▁giv	-459
ause	-460
▁increase	-461
rans	-462
alled	-463
▁different	-464
cul	-465
arket	-466
▁quantity	-467
▁ag	-468
▁should	-469
ign	-470
▁num	-471
len	-472
▁co	-473
atter	-474
▁sur	-475
.1	-476
ame	-477
▁pre	-478
▁their	-479
▁U	-480
▁change	-481
▁income	-482
▁may	-483
▁called	-484
▁amount	-485
ved	-486
ey	-487
▁6	-488
▁prices	-489
ry	-490
pert	-491
▁Ex	-492
▁oil	-493
	-494
ach	-495
▁lo	-496
▁bo	-497
▁rem	-498
dition	-499
yp	-500
____	-501
▁ass	-502
▁high	-503
ef	-504
gan	-505
▁fir	-506
▁Q	-507
gen	-508
alcul	-509
ind	-510
▁When	-511
urn	-512
ative	-513
ip	-514
itu	-515
2)	-516
ced	-517
tain	-518
▁There	-519
▁light	-520
▁metal	-521
aterial	-522
▁sub	-523
▁they	-524
cy	-525
ied	-526
▁than	-527
==	-528
▁system	-529
▁production	-530
▁V	-531
▁En	-532
▁pos	-533
netic	-534
▁particle	-535
▁Con	-536
▁like	-537
ven	-538
ane	-539
xim	-540
▁St	-541
ness	-542
▁period	-543
▁surf	-544
▁inflation	-545
▁sal	-546
rib	-547
▁due	-548
▁tem	-549
ensity	-550
▁where	-551
hemical	-552
▁−	-553
ings	-554
▁Com	-555
▁ref	-556
▁through	-557
und	-558
▁dist	-559
▁material	-560
gine	-561
▁interest	-562
20	-563
▁number	-564
reciation	-565
CO	-566
▁given	-567
itt	-568
▁if	-569
ixed	-570
▁gener	-571
▁trans	-572
▁8	-573
▁ac	-574
ific	-575
▁det	-576
▁law	-577
length	-578
up	-579
▁0.	-580
▁kn	-581
▁corro	-582
ions	-583
pos	-584
▁100	-585
▁sol	-586
ang	-587
ential	-588
▁mo	-589
▁commod	-590
ally	-591
rin	-592
▁act	-593
▁const	-594
ctor	-595
▁fol	-596
cos	-597
▁curve	-598
▁electric	-599
erv	-600
▁goods	-601
▁'	-602
▁follow	-603
▁market	-604
▁ii	-605
▁maxim	-606
stic	-607
ass	-608
tern	-609
▁dire	-610
▁phot	-611
ources	-612
▁same	-613
▁effect	-614
olo	-615
▁ve	-616
▁project	-617
yd	-618
▁consum	-619
fin	-620
rol	-621
ments	-622
ility	-623
▁over	-624
▁method	-625
▁wavelength	-626
ru	-627
▁,	-628
▁app	-629
asure	-630
▁di	-631
cept	-632
velop	-633
▁result	-634
▁char	-635
▁Inc	-636
ck	-637
▁such	-638
lastic	-639
ible	-640
olum	-641
perature	-642
ri	-643
ms	-644
▁typ	-645
▁money	-646
▁under	-647
3)	-648
ser	-649
ardness	-650
ts	-651
,?	-652
▁because	-653
▁environment	-654
ations	-655
.2	-656
cond	-657
▁opt	-658
▁man	-659
raction	-660
▁corrosion	-661
lic	-662
fore	-663
1)	-664
ubric	-665
ample	-666
arb	-667
vern	-668
▁any	-669
▁but	-670
▁these	-671
▁rep	-672
rinci	-673
▁Bank	-674
▁They	-675
▁measure	-676
▁surface	-677
ency	-678
▁gas	-679
ational	-680
▁invest	-681
▁propert	-682
▁requ	-683
ular	-684
▁gro	-685
▁hig	-686
nual	-687
eld	-688
lud	-689
ral	-690
lass	-691
▁vector	-692
xy	-693
▁ob	-694
ash	-695
▁radi	-696
▁temperature	-697
▁These	-698
oll	-699
ery	-700
put	-701
uel	-702
ield	-703
▁Su	-704
▁up	-705
▁fib	-706
ici	-707
les	-708
▁flow	-709
▁factors	-710
▁×	-711
▁15	-712
▁redu	-713
▁first	-714
ew	-715
▁tra	-716
▁boil	-717
ife	-718
ory	-719
▁But	-720
oth	-721
0,000	-722
▁term	-723
▁determ	-724
	-725
RR	-726
ering	-727
▁order	-728
aste	-729
▁acc	-730
▁pay	-731
▁into	-732
▁present	-733
▁lead	-734
▁then	-735
tc	-736
▁For	-737
▁etc	-738
▁oper	-739
ission	-740
cent	-741
▁electrons	-742
oy	-743
▁"	-744
▁K	-745
∇⃗⃗⃗	-746
▁diff	-747
▁higher	-748
▁second	-749
	-750
gin	-751
▁Ca	-752
alys	-753
▁laser	-754
fter	-755
ffici	-756
ants	-757
▁ret	-758
▁less	-759
vernment	-760
▁On	-761
2.	-762
king	-763
▁→	-764
ors	-765
▁bas	-766
▁ind	-767
▁years	-768
agnetic	-769
),	-770
▁7	-771
▁atom	-772
▁various	-773
ages	-774
ress	-775
▁spec	-776
▁develop	-777
▁gra	-778
▁med	-779
▁rise	-780
▁sm	-781
ydro	-782
▁hel	-783
▁known	-784
io	-785
ech	-786
ove	-787
tal	-788
ider	-789
▁lar	-790
▁occ	-791
▁inde	-792
▁electron	-793
▁bu	-794
action	-795
▁1.	-796
alysis	-797
▁defin	-798
▁condition	-799
▁depreciation	-800
ired	-801
▁some	-802
reat	-803
▁prop	-804
▁three	-805
ident	-806
▁only	-807
▁constant	-808
11	-809
▁lubric	-810
................	-811
).	-812
are	-813
▁Al	-814
▁get	-815
▁pot	-816
ero	-817
ends	-818
ract	-819
▁import	-820
▁engine	-821
▁elastic	-822
ice	-823
▁do	-824
▁Res	-825
▁case	-826
▁phys	-827
▁very	-828
▁field	-829
▁occur	-830
▁calcul	-831
▁commodity	-832
▁[	-833
▁Ch	-834
ivid	-835
▁low	-836
▁min	-837
ited	-838
▁help	-839
▁depos	-840
▁z	-841
100	-842
▁E⃗⃗	-843
▁organ	-844
▁total	-845
ast	-846
▁gr	-847
----	-848
▁count	-849
▁fixed	-850
romagnetic	-851
▁following	-852
5)	-853
erve	-854
▁sell	-855
▁subst	-856
4)	-857
ram	-858
▁des	-859
▁reg	-860
flation	-861
▁chemical	-862
aw	-863
sol	-864
ives	-865
quid	-866
arbon	-867
▁each	-868
▁increases	-869
dust	-870
ural	-871
▁end	-872
▁tax	-873
▁waste	-874
▁)	-875
ingle	-876
▁hardness	-877
▁pur	-878
▁Cost	-879
Cl	-880
▁fin	-881
ption	-882
▁asset	-883
▁cap	-884
,10	-885
out	-886
▁Ph	-887
▁comb	-888
▁life	-889
ference	-890
ulation	-891
val	-892
▁Mg	-893
▁ro	-894
▁both	-895
▁curre	-896
▁optical	-897
▁12	-898
ized	-899
ertain	-900
12	-901
ival	-902
▁small	-903
par	-904
▁free	-905
▁potential	-906
ft	-907
ud	-908
▁20	-909
ices	-910
reak	-911
▁Dis	-912
olume	-913
▁serv	-914
rease	-915
▁caus	-916
▁return	-917
pect	-918
rice	-919
uring	-920
ides	-921
▁Max	-922
▁prof	-923
▁no	-924
▁exc	-925
00,000	-926
▁CO	-927
▁fuel	-928
change	-929
▁fiber	-930
▁property	-931
▁resources	-932
▁government	-933
duct	-934
xygen	-935
▁remain	-936
▁>	-937
▁col	-938
▁long	-939
▁class	-940
▁9	-941
ize	-942
▁Sol	-943
▁mag	-944
▁unit	-945
ribution	-946
▁He	-947
▁most	-948
▁investment	-949
▁electromagnetic	-950
ood	-951
▁sl	-952
roup	-953
▁important	-954
▁Re	-955
ling	-956
cosystem	-957
AC	-958
omes	-959
▁Dep	-960
ology	-961
▁worth	-962
▁contain	-963
SO	-964
itude	-965
ring	-966
ording	-967
▁economic	-968
gle	-969
▁19	-970
ital	-971
ploy	-972
▁scal	-973
▁power	-974
▁medium	-975
▁demanded	-976
0.	-977
▁prov	-978
▁above	-979
▁large	-980
________	-981
sure	-982
▁cre	-983
▁tak	-984
▁direction	-985
ile	-986
aves	-987
vent	-988
▁disp	-989
▁Elect	-990
▁PW	-991
well	-992
▁Maxwell	-993
ie	-994
▁x	-995
acter	-996
▁fall	-997
▁hand	-998
▁types	-999
yc	-1000
▁required	-1001
kx	-1002
ues	-1003
▁must	-1004
▁princi	-1005
▁consider	-1006
▁use	-1007
▁intensity	-1008
2,	-1009
▁How	-1010
▁fil	-1011
▁repres	-1012
1,	-1013
icro	-1014
▁cat	-1015
reases	-1016
▁We	-1017
▁work	-1018
reatment	-1019
co	-1020
echn	-1021
▁index	-1022
▁lower	-1023
▁single	-1024
1.	-1025
ack	-1026
cal	-1027
ared	-1028
enef	-1029
▁ear	-1030
▁Price	-1031
▁liquid	-1032
▁grating	-1033
▁determin	-1034
▁materials	-1035
▁elasticity	-1036
15	-1037
▁J	-1038
ron	-1039
ression	-1040
▁maximum	-1041
ode	-1042
rop	-1043
▁No	-1044
▁Find	-1045
▁cent	-1046
sh	-1047
▁At	-1048
rite	-1049
▁Law	-1050
▁rel	-1051
▁By	-1052
itut	-1053
▁non	-1054
▁current	-1055
▁equal	-1056
one	-1057
ves	-1058
cial	-1059
	-1060
▁Thus	-1061
ne	-1062
ource	-1063
▁line	-1064
▁angle	-1065
▁means	-1066
vers	-1067
▁ent	-1068
▁group	-1069
ization	-1070
▁Calcul	-1071
▁ground	-1072
iii	-1073
ublic	-1074
▁after	-1075
▁hydro	-1076
▁Income	-1077
▁employ	-1078
emand	-1079
▁suppl	-1080
ivalent	-1081
▁altern	-1082
rit	-1083
fect	-1084
▁ext	-1085
▁ris	-1086
▁minim	-1087
▁includ	-1088
of	-1089
▁est	-1090
argin	-1091
ically	-1092
▁analysis	-1093
▁radiation	-1094
▁difference	-1095
ays	-1096
ists	-1097
▁show	-1098
ension	-1099
ability	-1100
▁indust	-1101
eed	-1102
atural	-1103
position	-1104
	-1105
etary	-1106
▁diag	-1107
atio	-1108
requ	-1109
▁well	-1110
▁Na	-1111
atic	-1112
ator	-1113
ward	-1114
old	-1115
▁av	-1116
even	-1117
gical	-1118
▁cash	-1119
▁down	-1120
▁using	-1121
▁output	-1122
▁reaction	-1123
ivity	-1124
▁boiler	-1125
▁pressure	-1126
ving	-1127
ually	-1128
▁poss	-1129
▁relation	-1130
uch	-1131
▁ar	-1132
▁economy	-1133
▁physical	-1134
tic	-1135
▁1,	-1136
ration	-1137
▁chang	-1138
▁produc	-1139
▁volume	-1140
hed	-1141
hes	-1142
reg	-1143
▁need	-1144
▁consumer	-1145
...	-1146
iver	-1147
▁Supp	-1148
▁control	-1149
)(	-1150
teg	-1151
▁add	-1152
▁ampl	-1153
▁Demand	-1154
▁X	-1155
ath	-1156
▁ox	-1157
▁From	-1158
▁been	-1159
ortion	-1160
▁waves	-1161
▁annual	-1162
▁diffraction	-1163
▁2.	-1164
▁sa	-1165
▁terms	-1166
▁emission	-1167
3.	-1168
▁br	-1169
ries	-1170
▁fig	-1171
	-1172
redit	-1173
▁disc	-1174
▁mass	-1175
▁maxima	-1176
ollution	-1177
▁Reserve	-1178
▁compound	-1179
▁1)	-1180
ines	-1181
▁buy	-1182
▁area	-1183
▁remo	-1184
▁∇⃗⃗⃗	-1185
16	-1186
▁λ	-1187
▁μ	-1188
eop	-1189
▁air	-1190
▁frequ	-1191
▁accept	-1192
▁defined	-1193
▁pop	-1194
ormal	-1195
▁comple	-1196
▁source	-1197
▁Example	-1198
▁country	-1199
:-	-1200
OH	-1201
	-1202
ick	-1203
ish	-1204
▁sin	-1205
▁sod	-1206
elect	-1207
itted	-1208
▁below	-1209
▁produced	-1210
ake	-1211
ibr	-1212
▁To	-1213
0000	-1214
other	-1215
▁Cont	-1216
▁made	-1217
▁banks	-1218
▁Calculate	-1219
TE	-1220
▁Equ	-1221
aving	-1222
eople	-1223
▁states	-1224
▁diagram	-1225
▁.	-1226
lor	-1227
▁De	-1228
▁Acc	-1229
▁iii	-1230
ividual	-1231
▁general	-1232
▁ecosystem	-1233
	-1234
osp	-1235
rim	-1236
ross	-1237
▁abs	-1238
herent	-1239
▁atoms	-1240
▁pl	-1241
amet	-1242
pend	-1243
itial	-1244
▁Water	-1245
▁matter	-1246
▁economics	-1247
pal	-1248
pon	-1249
ever	-1250
ulph	-1251
vant	-1252
▁ful	-1253
▁Inter	-1254
▁depends	-1255
▁exchange	-1256
)?	-1257
los	-1258
▁Or	-1259
ruct	-1260
ified	-1261
ision	-1262
▁Indi	-1263
▁invol	-1264
▁formed	-1265
imension	-1266
▁combust	-1267
▁expression	-1268
.0	-1269
ai	-1270
ds	-1271
ton	-1272
uman	-1273
ances	-1274
▁Write	-1275
▁incident	-1276
ilibr	-1277
ilibrium	-1278
▁magnetic	-1279
not	-1280
▁(1	-1281
,10,	-1282
▁10%	-1283
▁would	-1284
▁position	-1285
▁variable	-1286
▁equivalent	-1287
ining	-1288
▁affect	-1289
▁compon	-1290
▁direct	-1291
▁during	-1292
fficient	-1293
▁services	-1294
als	-1295
▁agg	-1296
▁acid	-1297
▁ions	-1298
ternal	-1299
▁short	-1300
▁Inflation	-1301
▁development	-1302
urb	-1303
very	-1304
▁who	-1305
ocity	-1306
▁much	-1307
▁stud	-1308
▁salts	-1309
▁Engine	-1310
▁photon	-1311
▁public	-1312
vironmental	-1313
▁individual	-1314
▁equilibrium	-1315
ia	-1316
▁OP	-1317
uture	-1318
solved	-1319
▁activ	-1320
▁place	-1321
▁super	-1322
▁credit	-1323
▁oxygen	-1324
AN	-1325
ases	-1326
▁run	-1327
▁situ	-1328
alance	-1329
▁scale	-1330
▁techn	-1331
▁values	-1332
▁account	-1333
▁formation	-1334
az	-1335
ety	-1336
▁ratio	-1337
▁occurs	-1338
▁profit	-1339
):	-1340
E⃗⃗	-1341
oss	-1342
reen	-1343
▁IRR	-1344
▁cal	-1345
▁net	-1346
itive	-1347
▁sign	-1348
▁size	-1349
▁parts	-1350
▁spect	-1351
ological	-1352
▁produce	-1353
▁products	-1354
ful	-1355
2222	-1356
ison	-1357
▁ste	-1358
▁core	-1359
▁inst	-1360
▁them	-1361
▁excited	-1362
▁includes	-1363
500	-1364
unic	-1365
▁Mon	-1366
▁alk	-1367
5,000	-1368
pared	-1369
▁benef	-1370
▁percent	-1371
▁According	-1372
▁Therefore	-1373
OA	-1374
OD	-1375
▁2)	-1376
ctane	-1377
▁H⃗⃗⃗	-1378
▁does	-1379
▁assum	-1380
ractive	-1381
▁particular	-1382
▁Am	-1383
▁mod	-1384
▁maint	-1385
▁micro	-1386
▁compar	-1387
▁theory	-1388
▁solution	-1389
air	-1390
aila	-1391
alth	-1392
imes	-1393
oint	-1394
▁New	-1395
▁lim	-1396
▁oils	-1397
ersion	-1398
ulated	-1399
▁along	-1400
▁appro	-1401
▁aggreg	-1402
▁cannot	-1403
▁expect	-1404
▁people	-1405
▁deposits	-1406
▁activities	-1407
▁population	-1408
▁Depreciation	-1409
cu	-1410
▁j	-1411
ern	-1412
sing	-1413
▁eas	-1414
azard	-1415
iture	-1416
▁beam	-1417
▁find	-1418
tegral	-1419
▁conditions	-1420
ula	-1421
▁ei	-1422
arge	-1423
▁vel	-1424
iness	-1425
▁zero	-1426
▁solid	-1427
▁theof	-1428
lection	-1429
▁character	-1430
▁generally	-1431
23	-1432
bic	-1433
row	-1434
▁Sal	-1435
ressed	-1436
▁India	-1437
▁rings	-1438
▁conver	-1439
▁supplied	-1440
▁Engineering	-1441
▁engineering	-1442
▁(2	-1443
▁availa	-1444
▁commodities	-1445
wt	-1446
ift	-1447
ody	-1448
▁land	-1449
▁make	-1450
▁Where	-1451
▁about	-1452
▁purch	-1453
ormation	-1454
▁photons	-1455
fficiency	-1456
▁prepared	-1457
▁aggregate	-1458
PP	-1459
by	-1460
▁ε	-1461
	-1462
▁op	-1463
▁(2)	-1464
▁200	-1465
▁set	-1466
▁cell	-1467
duction	-1468
▁obtain	-1469
)=	-1470
IC	-1471
▁Y	-1472
▁ψ	-1473
get	-1474
ier	-1475
ning	-1476
▁saf	-1477
▁leads	-1478
ination	-1479
ruction	-1480
▁transm	-1481
enditure	-1482
▁certain	-1483
▁organic	-1484
▁Environmental	-1485
=+	-1486
me	-1487
otal	-1488
▁Pla	-1489
▁enc	-1490
▁new	-1491
▁sum	-1492
▁50	-1493
lace	-1494
pose	-1495
rial	-1496
▁neg	-1497
▁rece	-1498
▁take	-1499
▁human	-1500
▁cathod	-1501
vantages	-1502
▁velocity	-1503
▁amplitude	-1504
▁equations	-1505
▁treatment	-1506
▁combustion	-1507
▁environmental	-1508
.5	-1509
imi	-1510
▁many	-1511
▁pass	-1512
▁cause	-1513
▁chain	-1514
▁shows	-1515
▁stage	-1516
pective	-1517
vention	-1518
▁Econom	-1519
▁charge	-1520
▁represent	-1521
▁interference	-1522
8)	-1523
▁φ	-1524
ump	-1525
valu	-1526
were	-1527
▁Met	-1528
▁car	-1529
eries	-1530
estic	-1531
▁were	-1532
energy	-1533
▁shown	-1534
▁space	-1535
▁contin	-1536
▁capital	-1537
▁measures	-1538
14	-1539
7)	-1540
IS	-1541
Na	-1542
mon	-1543
▁Pb	-1544
▁att	-1545
▁pet	-1546
verse	-1547
imilar	-1548
lement	-1549
▁start	-1550
▁those	-1551
▁density	-1552
40	-1553
mm	-1554
raw	-1555
idth	-1556
ough	-1557
ycle	-1558
▁EAC	-1559
▁you	-1560
▁pers	-1561
▁soap	-1562
▁Gener	-1563
▁absor	-1564
▁inclu	-1565
▁speed	-1566
▁Product	-1567
▁frequency	-1568
RE	-1569
	-1570
▁film	-1571
lected	-1572
raight	-1573
▁phase	-1574
agement	-1575
▁propag	-1576
▁However	-1577
ob	-1578
iment	-1579
▁2000	-1580
▁mole	-1581
istics	-1582
▁Waste	-1583
▁again	-1584
▁falls	-1585
▁shift	-1586
▁Annual	-1587
▁future	-1588
lacement	-1589
▁principal	-1590
NP	-1591
▁∇	-1592
200	-1593
ily	-1594
inal	-1595
ither	-1596
▁soil	-1597
▁Break	-1598
▁takes	-1599
▁common	-1600
▁secondary	-1601
▁refractive	-1602
.,	-1603
AS	-1604
ok	-1605
yl	-1606
ritt	-1607
round	-1608
water	-1609
▁real	-1610
▁while	-1611
▁becomes	-1612
▁perfect	-1613
▁monetary	-1614
mp	-1615
▁	-1616
jor	-1617
pit	-1618
▁Per	-1619
ganic	-1620
itute	-1621
▁phen	-1622
▁what	-1623
▁Banks	-1624
arginal	-1625
recipit	-1626
▁before	-1627
▁figure	-1628
▁metals	-1629
▁electro	-1630
▁emitted	-1631
▁natural	-1632
%,	-1633
)2	-1634
30	-1635
ins	-1636
▁eq	-1637
olic	-1638
▁(1)	-1639
▁Act	-1640
▁fore	-1641
erobic	-1642
ferred	-1643
▁plant	-1644
omestic	-1645
uc	-1646
	-1647
gra	-1648
▁Sh	-1649
ludge	-1650
oment	-1651
▁mult	-1652
▁path	-1653
ameter	-1654
▁added	-1655
▁break	-1656
▁charg	-1657
▁Newton	-1658
▁proble	-1659
azardous	-1660
▁changes	-1661
▁negative	-1662
▁possible	-1663
▁dissolved	-1664
45	-1665
▁mg	-1666
mosp	-1667
ship	-1668
uous	-1669
▁Cons	-1670
▁soft	-1671
▁width	-1672
▁batter	-1673
▁particles	-1674
▁increasing	-1675
ism	-1676
▁Ad	-1677
ourse	-1678
▁main	-1679
verage	-1680
▁costs	-1681
▁fring	-1682
omentum	-1683
▁Factor	-1684
▁having	-1685
▁intern	-1686
▁minimum	-1687
▁proportion	-1688
▁distribution	-1689
cm	-1690
▁im	-1691
====	-1692
nder	-1693
aries	-1694
▁type	-1695
itable	-1696
▁being	-1697
▁sales	-1698
ructure	-1699
▁within	-1700
▁balance	-1701
ification	-1702
▁integral	-1703
▁expenditure	-1704
▁relationship	-1705
ail	-1706
den	-1707
ock	-1708
oid	-1709
▁Ag	-1710
fill	-1711
lack	-1712
ting	-1713
▁250	-1714
▁Det	-1715
▁Pre	-1716
losed	-1717
▁heat	-1718
▁(∇⃗⃗⃗	-1719
▁Total	-1720
▁allow	-1721
▁based	-1722
▁major	-1723
▁sound	-1724
5.	-1725
6)	-1726
led	-1727
rum	-1728
▁Un	-1729
abil	-1730
cium	-1731
▁che	-1732
▁earn	-1733
reater	-1734
▁gases	-1735
▁react	-1736
▁separ	-1737
▁units	-1738
▁example	-1739
▁Hardness	-1740
▁determine	-1741
18	-1742
60	-1743
ON	-1744
Rs	-1745
nes	-1746
▁Co	-1747
cing	-1748
tion	-1749
▁BOD	-1750
▁Dif	-1751
▁adv	-1752
▁CaCO	-1753
▁cust	-1754
▁food	-1755
▁Market	-1756
90	-1757
ty	-1758
▁ax	-1759
aces	-1760
bers	-1761
isms	-1762
▁Ass	-1763
▁prob	-1764
▁step	-1765
▁estim	-1766
▁graph	-1767
▁distance	-1768
▁payments	-1769
▁presence	-1770
▁situation	-1771
▁efficiency	-1772
sc	-1773
	-1774
HCO	-1775
lad	-1776
auss	-1777
▁Now	-1778
▁crit	-1779
▁grow	-1780
▁simp	-1781
ercial	-1782
▁Gauss	-1783
▁course	-1784
▁depend	-1785
▁Process	-1786
▁decision	-1787
▁external	-1788
▁relative	-1789
centration	-1790
▁resultant	-1791
por	-1792
ten	-1793
uls	-1794
▁Ar	-1795
▁Sp	-1796
ware	-1797
▁Let	-1798
▁off	-1799
▁sat	-1800
irect	-1801
▁Here	-1802
▁firm	-1803
▁loss	-1804
▁oxid	-1805
attern	-1806
▁right	-1807
▁compet	-1808
▁nature	-1809
▁banking	-1810
▁greater	-1811
▁usually	-1812
▁available	-1813
▁electrical	-1814
▁properties	-1815
▁information	-1816
EE	-1817
▁Qu	-1818
arri	-1819
igen	-1820
uted	-1821
▁how	-1822
▁ign	-1823
▁slit	-1824
aneous	-1825
respon	-1826
rimary	-1827
▁chlor	-1828
▁Princi	-1829
▁sodium	-1830
▁travel	-1831
▁Suppose	-1832
▁species	-1833
▁straight	-1834
▁pollution	-1835
▁components	-1836
ata	-1837
vage	-1838
▁Net	-1839
▁his	-1840
▁mix	-1841
ently	-1842
▁mach	-1843
umping	-1844
▁another	-1845
▁pattern	-1846
▁sources	-1847
▁considered	-1848
80	-1849
−−	-1850
▁cl	-1851
▁Man	-1852
▁Sin	-1853
▁loc	-1854
▁unc	-1855
▁Comp	-1856
▁desc	-1857
▁full	-1858
▁reas	-1859
▁subject	-1860
essential	-1861
▁increased	-1862
________________	-1863
ynt	-1864
▁25	-1865
▁iv	-1866
▁lab	-1867
ening	-1868
iverg	-1869
▁body	-1870
▁even	-1871
▁know	-1872
▁exist	-1873
▁50,000	-1874
▁initial	-1875
▁National	-1876
▁national	-1877
▁consumption	-1878
ex	-1879
ti	-1880
equ	-1881
que	-1882
▁3)	-1883
omen	-1884
pton	-1885
▁Num	-1886
▁Typ	-1887
▁deb	-1888
▁par	-1889
icult	-1890
▁Then	-1891
▁Determ	-1892
▁rising	-1893
▁explain	-1894
▁phenomen	-1895
▁positive	-1896
▁precipit	-1897
▁effective	-1898
▁lubricants	-1899
▁alternative	-1900
.8	-1901
▁√	-1902
kes	-1903
ises	-1904
omet	-1905
▁flu	-1906
▁reco	-1907
50,000	-1908
ipment	-1909
▁deposit	-1910
ivergence	-1911
unication	-1912
▁projects	-1913
▁decreases	-1914
▁comparison	-1915
AL	-1916
OM	-1917
xx	-1918
iew	-1919
▁Se	-1920
eful	-1921
ircu	-1922
▁...	-1923
▁10-	-1924
artic	-1925
▁Wave	-1926
▁prot	-1927
▁plane	-1928
ladding	-1929
▁caused	-1930
▁custom	-1931
imulated	-1932
▁effects	-1933
▁addition	-1934
▁decrease	-1935
▁momentum	-1936
▁uncertain	-1937
3,	-1938
des	-1939
isf	-1940
ren	-1941
▁16	-1942
ilic	-1943
ality	-1944
olicy	-1945
olumn	-1946
▁orig	-1947
atives	-1948
▁State	-1949
▁normal	-1950
▁octane	-1951
▁refers	-1952
▁series	-1953
▁foreign	-1954
▁methods	-1955
▁removed	-1956
▁consists	-1957
▁compounds	-1958
▁dimension	-1959
▁employment	-1960
.7	-1961
In	-1962
sin	-1963
ush	-1964
▁=?	-1965
ateg	-1966
osph	-1967
ples	-1968
▁B⃗⃗	-1969
iesel	-1970
▁Rate	-1971
▁perm	-1972
▁points	-1973
▁central	-1974
▁internal	-1975
▁marginal	-1976
▁surfaces	-1977
▁displacement	-1978
4,	-1979
VC	-1980
0.1	-1981
ike	-1982
nel	-1983
▁30	-1984
▁Sc	-1985
ires	-1986
iform	-1987
waste	-1988
▁back	-1989
arrier	-1990
▁Fixed	-1991
▁exper	-1992
▁forms	-1993
▁Method	-1994
▁moving	-1995
▁service	-1996
▁essential	-1997
▁transition	-1998
nn	-1999
ARR	-2000
ian	-2001
▁(3)	-2002
▁fac	-2003
▁0.00	-2004
▁four	-2005
▁upon	-2006
urther	-2007
▁Under	-2008
▁infin	-2009
▁Energy	-2010
▁applic	-2011
▁assets	-2012
▁carbon	-2013
▁weight	-2014
▁quantum	-2015
▁suitable	-2016
▁correspon	-2017
▁operating	-2018
▁determined	-2019
▁represents	-2020
▁;	-2021
ler	-2022
▁ec	-2023
ture	-2024
▁Cal	-2025
▁decl	-2026
▁wages	-2027
▁hydrogen	-2028
▁processes	-2029
▁remaining	-2030
3(	-2031
70	-2032
QQ	-2033
−=	-2034
▁Z	-2035
▁θ	-2036
lie	-2037
▁Me	-2038
▁ke	-2039
▁∂2	-2040
chan	-2041
iner	-2042
orro	-2043
rack	-2044
▁Sch	-2045
▁ray	-2046
acity	-2047
unity	-2048
▁Fuel	-2049
▁Inst	-2050
▁Prof	-2051
oelect	-2052
ritten	-2053
▁Since	-2054
▁among	-2055
▁gives	-2056
▁helps	-2057
▁taxes	-2058
▁mechan	-2059
▁reduce	-2060
▁sludge	-2061
▁purpose	-2062
▁thereby	-2063
▁Analysis	-2064
▁approach	-2065
▁diameter	-2066
▁difficult	-2067
SW	-2068
ted	-2069
dule	-2070
form	-2071
ites	-2072
ived	-2073
▁MSW	-2074
▁adj	-2075
▁hen	-2076
▁lay	-2077
▁raw	-2078
▁sec	-2079
ength	-2080
iving	-2081
▁axis	-2082
▁dark	-2083
▁done	-2084
▁role	-2085
hedule	-2086
▁Trans	-2087
▁basis	-2088
▁divid	-2089
▁times	-2090
urities	-2091
▁height	-2092
▁contains	-2093
▁fraction	-2094
▁countries	-2095
▁industrial	-2096
+2	-2097
.3	-2098
ont	-2099
iven	-2100
read	-2101
▁150	-2102
▁Why	-2103
▁beh	-2104
▁cos	-2105
▁rub	-2106
▁vol	-2107
dient	-2108
ollut	-2109
▁black	-2110
▁categ	-2111
▁impro	-2112
▁range	-2113
▁steam	-2114
,00,000	-2115
cessary	-2116
▁groups	-2117
▁satisf	-2118
▁useful	-2119
▁Propert	-2120
▁dispers	-2121
▁results	-2122
▁Interest	-2123
▁customers	-2124
▁divergence	-2125
▁phenomenon	-2126
qq	-2127
▁FW	-2128
ided	-2129
▁Exp	-2130
▁poly	-2131
▁alkal	-2132
▁hence	-2133
▁input	-2134
▁sulph	-2135
usiness	-2136
▁column	-2137
▁excess	-2138
▁concept	-2139
▁functions	-2140
▁reactions	-2141
25	-2142
55	-2143
OL	-2144
ION	-2145
ify	-2146
rog	-2147
leum	-2148
sequ	-2149
side	-2150
ucle	-2151
▁Dec	-2152
▁Gra	-2153
▁vis	-2154
iding	-2155
venue	-2156
▁goes	-2157
▁resp	-2158
roleum	-2159
▁Hence	-2160
▁disch	-2161
ificial	-2162
▁Effect	-2163
▁Compton	-2164
▁cathode	-2165
▁payment	-2166
▁written	-2167
▁operation	-2168
▁photoelect	-2169
2-	-2170
7,	-2171
94	-2172
▁Ne	-2173
aser	-2174
face	-2175
▁suc	-2176
▁Plan	-2177
▁laws	-2178
▁rest	-2179
▁slow	-2180
▁tend	-2181
▁evalu	-2182
▁every	-2183
▁length	-2184
▁formula	-2185
▁greases	-2186
▁protect	-2187
▁provide	-2188
▁schedule	-2189
▁calculate	-2190
OB	-2191
ior	-2192
▁3.	-2193
▁Ac	-2194
▁cm	-2195
apor	-2196
chie	-2197
▁(0.	-2198
▁cle	-2199
ished	-2200
▁give	-2201
▁mean	-2202
▁plan	-2203
econom	-2204
▁Types	-2205
▁achie	-2206
▁anode	-2207
▁makes	-2208
▁causes	-2209
▁easily	-2210
▁either	-2211
▁levels	-2212
▁follows	-2213
▁Increase	-2214
▁inversion	-2215
▁calculated	-2216
▁superposition	-2217
1(	-2218
▁Å	-2219
3)2	-2220
eol	-2221
for	-2222
ger	-2223
ner	-2224
▁Go	-2225
⃗⃗⃗⃗	-2226
▁Def	-2227
▁Fig	-2228
▁box	-2229
▁har	-2230
inity	-2231
▁Comm	-2232
▁hard	-2233
▁lime	-2234
▁name	-2235
▁flows	-2236
▁study	-2237
reasing	-2238
▁Control	-2239
▁conduct	-2240
▁pumping	-2241
▁quality	-2242
▁obtained	-2243
▁principle	-2244
▁structure	-2245
▁temperatures	-2246
28	-2247
34	-2248
ER	-2249
IA	-2250
abl	-2251
any	-2252
ert	-2253
the	-2254
▁II	-2255
▁bi	-2256
eria	-2257
uble	-2258
▁400	-2259
▁500	-2260
▁App	-2261
▁day	-2262
▁der	-2263
▁dev	-2264
rical	-2265
▁Cash	-2266
▁Laws	-2267
▁Vari	-2268
▁conc	-2269
▁local	-2270
▁rates	-2271
▁rises	-2272
astable	-2273
▁region	-2274
▁fringes	-2275
▁further	-2276
▁profits	-2277
▁commercial	-2278
▁respective	-2279
▁stimulated	-2280
▁<	-2281
400	-2282
aly	-2283
hib	-2284
itr	-2285
uss	-2286
▁k̂	-2287
port	-2288
ivate	-2289
▁pair	-2290
isture	-2291
▁Solid	-2292
▁enter	-2293
▁influ	-2294
▁limit	-2295
▁loans	-2296
▁often	-2297
▁thick	-2298
tection	-2299
▁policy	-2300
▁causing	-2301
▁contact	-2302
▁content	-2303
▁include	-2304
▁physics	-2305
▁cladding	-2306
▁involves	-2307
64	-2308
QT	-2309
ps	-2310
	-2311
,15	-2312
ute	-2313
▁eV	-2314
soci	-2315
▁Sub	-2316
▁cyc	-2317
▁ion	-2318
▁iss	-2319
▁red	-2320
▁turn	-2321
▁Phase	-2322
▁Quant	-2323
▁finan	-2324
▁Lubric	-2325
▁associ	-2326
▁average	-2327
▁reduces	-2328
▁coherent	-2329
▁complete	-2330
▁Pollution	-2331
▁expressed	-2332
▁lubricant	-2333
▁associated	-2334
▁containing	-2335
▁substances	-2336
.4	-2337
Ca	-2338
sec	-2339
▁Fe	-2340
imin	-2341
orem	-2342
▁GNP	-2343
ivers	-2344
ories	-2345
oring	-2346
▁buil	-2347
▁data	-2348
rivate	-2349
ulsion	-2350
▁Hydro	-2351
▁basic	-2352
▁whose	-2353
▁living	-2354
▁resist	-2355
▁safety	-2356
▁calcium	-2357
▁mainten	-2358
▁without	-2359
▁continuous	-2360
▁experiment	-2361
EM	-2362
uf	-2363
▁ĵ	-2364
edu	-2365
pro	-2366
▁Po	-2367
000(	-2368
1000	-2369
Brog	-2370
ceed	-2371
less	-2372
▁Imp	-2373
▁Tem	-2374
▁ann	-2375
anent	-2376
ather	-2377
otion	-2378
posal	-2379
ufact	-2380
▁lens	-2381
▁Using	-2382
▁bound	-2383
itution	-2384
▁absorb	-2385
▁design	-2386
▁diesel	-2387
▁establ	-2388
▁growth	-2389
▁making	-2390
--------	-2391
▁Natural	-2392
▁benefit	-2393
▁related	-2394
▁systems	-2395
▁Chemical	-2396
▁expected	-2397
▁maintain	-2398
▁transfer	-2399
advantages	-2400
▁Economics	-2401
▁Generally	-2402
▁organisms	-2403
▁petroleum	-2404
▁courseware	-2405
▁metastable	-2406
▁alternatives	-2407
▁differential	-2408
33	-2409
9)	-2410
NN	-2411
ox	-2412
app	-2413
att	-2414
day	-2415
ead	-2416
ott	-2417
▁SO	-2418
▁dil	-2419
▁acts	-2420
▁fund	-2421
arding	-2422
cosity	-2423
idence	-2424
ishing	-2425
▁Laser	-2426
▁Sales	-2427
▁stand	-2428
▁atmosp	-2429
▁bright	-2430
▁boiling	-2431
▁mixture	-2432
▁business	-2433
..........	-2434
▁according	-2435
▁consumers	-2436
▁equipment	-2437
▁necessary	-2438
▁Production	-2439
▁technology	-2440
▁wastewater	-2441
75	-2442
dl	-2443
dx	-2444
enc	-2445
lus	-2446
pid	-2447
▁18	-2448
▁Ob	-2449
,15,	-2450
acro	-2451
ased	-2452
aust	-2453
back	-2454
hold	-2455
ised	-2456
▁Cur	-2457
▁Int	-2458
▁Its	-2459
▁Non	-2460
▁aut	-2461
▁mem	-2462
▁tre	-2463
aking	-2464
ising	-2465
wards	-2466
▁High	-2467
▁Show	-2468
▁Some	-2469
▁Such	-2470
▁drop	-2471
▁left	-2472
▁salt	-2473
▁soda	-2474
▁temp	-2475
orific	-2476
roding	-2477
▁taken	-2478
▁trade	-2479
▁whole	-2480
▁words	-2481
perture	-2482
▁hydroc	-2483
▁sample	-2484
imilarly	-2485
▁against	-2486
▁battery	-2487
▁concern	-2488
▁special	-2489
	-2490
▁specific	-2491
▁Determine	-2492
▁Ecosystem	-2493
▁Schroding	-2494
▁classical	-2495
▁producers	-2496
............	-2497
2+	-2498
▁$	-2499
	-2500
	-2501
opt	-2502
van	-2503
	-2504
	-2505
ined	-2506
▁opp	-2507
hibit	-2508
▁bill	-2509
▁rays	-2510
▁side	-2511
▁valu	-2512
▁your	-2513
ection	-2514
erical	-2515
resent	-2516
▁Fuels	-2517
▁found	-2518
	-2519
organic	-2520
▁create	-2521
▁inputs	-2522
▁disturb	-2523
▁problem	-2524
▁Domestic	-2525
▁chlorine	-2526
▁therefore	-2527
▁classified	-2528
▁maintenance	-2529
▁communication	-2530
2(	-2531
AB	-2532
tt	-2533
▁✓	-2534
Cos	-2535
alf	-2536
avy	-2537
com	-2538
ink	-2539
▁60	-2540
▁ml	-2541
▁ut	-2542
▁wt	-2543
roph	-2544
sive	-2545
▁Oil	-2546
imate	-2547
oline	-2548
stand	-2549
⃗⃗⃗⃗⃗	-2550
▁1000	-2551
▁MARR	-2552
▁After	-2553
▁multi	-2554
▁nucle	-2555
Broglie	-2556
article	-2557
racking	-2558
▁Number	-2559
▁Oxygen	-2560
▁reason	-2561
▁Initial	-2562
▁Project	-2563
▁consist	-2564
▁describ	-2565
▁prevent	-2566
▁uniform	-2567
▁benefits	-2568
▁manufact	-2569
▁Similarly	-2570
▁chemicals	-2571
▁producing	-2572
▁propagation	-2573
10)	-2574
oam	-2575
▁Mo	-2576
ders	-2577
etane	-2578
ittle	-2579
▁Phys	-2580
▁open	-2581
▁ring	-2582
▁Gross	-2583
▁Silic	-2584
▁indic	-2585
▁spont	-2586
▁Planck	-2587
▁discuss	-2588
▁respons	-2589
ochemical	-2590
▁enclosed	-2591
▁measured	-2592
▁produces	-2593
▁perfectly	-2594
▁calculation	-2595
▁spontaneous	-2596
▁transmission	-2597
▁concentration	-2598
PW	-2599
---	-2600
▁1?	-2601
▁5)	-2602
▁Bo	-2603
▁IN	-2604
▁OF	-2605
1212	-2606
ters	-2607
▁Two	-2608
▁now	-2609
▁nps	-2610
ected	-2611
▁Spec	-2612
▁flux	-2613
▁hold	-2614
▁loan	-2615
▁play	-2616
▁rain	-2617
▁sett	-2618
avings	-2619
▁obser	-2620
▁rapid	-2621
osition	-2622
riction	-2623
▁30,000	-2624
▁40,000	-2625
▁extent	-2626
▁object	-2627
▁Factors	-2628
▁collect	-2629
▁company	-2630
▁working	-2631
▁Electron	-2632
▁aperture	-2633
▁capacity	-2634
▁contents	-2635
▁gradient	-2636
▁independ	-2637
▁infinite	-2638
▁hazardous	-2639
▁Properties	-2640
▁substitute	-2641
▁probability	-2642
▁respectively	-2643
▁Disadvantages	-2644
.6	-2645
86	-2646
▁/	-2647
.15	-2648
▁∇2	-2649
gree	-2650
like	-2651
push	-2652
ques	-2653
road	-2654
rous	-2655
uity	-2656
ways	-2657
▁Tax	-2658
▁dam	-2659
enses	-2660
gines	-2661
istic	-2662
orage	-2663
ulate	-2664
▁move	-2665
▁prog	-2666
itives	-2667
ricult	-2668
▁Amper	-2669
▁adopt	-2670
▁agent	-2671
▁areas	-2672
▁Carbon	-2673
▁adjust	-2674
▁seller	-2675
▁engines	-2676
▁success	-2677
efficient	-2678
▁spectrum	-2679
▁quantities	-2680
BR	-2681
ES	-2682
mg	-2683
▁q	-2684
The	-2685
inc	-2686
min	-2687
ope	-2688
▁4)	-2689
▁Bi	-2690
▁ev	-2691
▁ow	-2692
▁sw	-2693
2022	-2694
iber	-2695
imum	-2696
pped	-2697
▁Cap	-2698
▁Gas	-2699
▁Ret	-2700
▁Sod	-2701
▁way	-2702
▁why	-2703
athem	-2704
ences	-2705
ropic	-2706
▁Char	-2707
▁Diff	-2708
▁Phot	-2709
▁bran	-2710
▁debt	-2711
▁dest	-2712
▁safe	-2713
▁vary	-2714
▁wide	-2715
hether	-2716
▁Macro	-2717
▁Techn	-2718
▁comes	-2719
ilities	-2720
▁Indust	-2721
▁Profit	-2722
▁proper	-2723
▁radius	-2724
▁wealth	-2725
tificial	-2726
▁adverse	-2727
▁coating	-2728
▁sellers	-2729
▁involved	-2730
▁observed	-2731
▁subjects	-2732
▁Principle	-2733
▁estimated	-2734
▁financial	-2735
tr	-2736
▁Ψ	-2737
▁0,	-2738
▁Em	-2739
izes	-2740
orts	-2741
pper	-2742
▁Des	-2743
ately	-2744
cular	-2745
ended	-2746
lying	-2747
▁bott	-2748
gether	-2749
▁decom	-2750
▁glass	-2751
▁resid	-2752
▁sells	-2753
▁sever	-2754
▁buyers	-2755
▁contam	-2756
▁larger	-2757
iversity	-2758
▁barrier	-2759
▁reflect	-2760
inflation	-2761
▁compared	-2762
▁directly	-2763
▁emulsion	-2764
▁reducing	-2765
▁together	-2766
▁incidence	-2767
▁reflected	-2768
▁management	-2769
▁characteristics	-2770
En	-2771
SP	-2772
dV	-2773
og	-2774
	-2775
800	-2776
elf	-2777
och	-2778
ole	-2779
▁14	-2780
▁2,	-2781
TETE	-2782
irst	-2783
oynt	-2784
ules	-2785
▁Key	-2786
▁Mod	-2787
▁NPW	-2788
▁Rem	-2789
▁Sur	-2790
▁ele	-2791
▁anod	-2792
▁gets	-2793
▁swit	-2794
amples	-2795
porary	-2796
▁Micro	-2797
▁Poynt	-2798
▁ident	-2799
▁world	-2800
athemat	-2801
icarbon	-2802
osphate	-2803
romatic	-2804
▁Keynes	-2805
▁Return	-2806
▁Supply	-2807
▁undert	-2808
▁depreci	-2809
▁distill	-2810
▁element	-2811
▁selling	-2812
ollutants	-2813
▁Poynting	-2814
▁employed	-2815
▁provides	-2816
▁signific	-2817
▁discharge	-2818
▁economies	-2819
▁variation	-2820
istribution	-2821
▁construction	-2822
%)	-2823
,8	-2824
93	-2825
CV	-2826
NT	-2827
	-2828
700	-2829
ipt	-2830
iss	-2831
ord	-2832
ppm	-2833
▁Ec	-2834
H⃗⃗⃗	-2835
grad	-2836
▁Bas	-2837
▁Use	-2838
▁few	-2839
alvan	-2840
alyst	-2841
▁prom	-2842
▁read	-2843
▁want	-2844
▁zeol	-2845
enefit	-2846
ention	-2847
▁earth	-2848
▁layer	-2849
▁table	-2850
▁become	-2851
▁highly	-2852
▁minima	-2853
▁plants	-2854
▁prepar	-2855
ometimes	-2856
▁perform	-2857
▁require	-2858
▁scatter	-2859
▁purchase	-2860
▁declining	-2861
▁stability	-2862
▁Government	-2863
▁lubricating	-2864
26	-2865
95	-2866
AT	-2867
go	-2868
ma	-2869
lel	-2870
net	-2871
ror	-2872
▁Dn	-2873
▁ds	-2874
▁ir	-2875
ened	-2876
otic	-2877
oura	-2878
ouse	-2879
utri	-2880
▁Cat	-2881
▁Mar	-2882
▁One	-2883
▁Val	-2884
,000)	-2885
allel	-2886
fully	-2887
hesis	-2888
▁Food	-2889
▁Main	-2890
▁best	-2891
▁gain	-2892
▁iron	-2893
▁load	-2894
▁rock	-2895
estion	-2896
inetic	-2897
▁Assum	-2898
▁firms	-2899
▁force	-2900
▁heavy	-2901
▁raise	-2902
▁wants	-2903
▁0.003(	-2904
▁Margin	-2905
▁health	-2906
▁petrol	-2907
▁select	-2908
▁varies	-2909
equation	-2910
ynthesis	-2911
▁Silicon	-2912
▁ds⃗⃗⃗⃗⃗	-2913
▁forming	-2914
▁primary	-2915
▁reduced	-2916
▁smaller	-2917
▁spectra	-2918
dimension	-2919
▁Variable	-2920
▁gasoline	-2921
▁industry	-2922
▁oxidation	-2923
▁substance	-2924
▁categories	-2925
▁industries	-2926
▁represented	-2927
,/	-2928
."	-2929
AW	-2930
NO	-2931
ei	-2932
▁%	-2933
▁cr	-2934
▁gu	-2935
▁nm	-2936
imal	-2937
quif	-2938
rons	-2939
udit	-2940
▁lit	-2941
▁osc	-2942
▁our	-2943
anger	-2944
ching	-2945
fined	-2946
▁5000	-2947
▁cool	-2948
▁prev	-2949
▁wage	-2950
▁wast	-2951
icular	-2952
▁mixed	-2953
▁oxide	-2954
alvanic	-2955
▁Compar	-2956
▁modern	-2957
▁oscill	-2958
▁plates	-2959
eduction	-2960
▁affects	-2961
▁defines	-2962
▁removal	-2963
▁salvage	-2964
▁Consider	-2965
▁achieved	-2966
▁requires	-2967
pendicular	-2968
▁component	-2969
▁developed	-2970
▁absorption	-2971
▁percentage	-2972
▁competition	-2973
▁disturbance	-2974
)/	-2975
35	-2976
CL	-2977
DP	-2978
ee	-2979
(2.	-2980
ene	-2981
ulf	-2982
▁DO	-2983
▁IT	-2984
rich	-2985
▁All	-2986
▁Der	-2987
▁rad	-2988
▁sus	-2989
iquid	-2990
▁Scal	-2991
▁burn	-2992
▁fast	-2993
▁lose	-2994
▁magn	-2995
ferent	-2996
▁Corro	-2997
▁Cycle	-2998
▁Value	-2999
▁avoid	-3000
▁carry	-3001
▁corre	-3002
▁Direct	-3003
▁adding	-3004
▁person	-3005
▁reserv	-3006
▁scalar	-3007
▁simple	-3008
▁things	-3009
▁Another	-3010
▁inhibit	-3011
▁Equation	-3012
▁friction	-3013
▁parallel	-3014
▁Hazardous	-3015
▁protection	-3016
▁determining	-3017
▁established	-3018
▁photoelectric	-3019
ird	-3020
▁fl	-3021
gion	-3022
umin	-3023
▁too	-3024
▁Time	-3025
▁feed	-3026
▁near	-3027
▁	-3028
▁cycle	-3029
▁labor	-3030
▁lines	-3031
aerobic	-3032
▁little	-3033
▁monoch	-3034
▁Develop	-3035
▁Organic	-3036
▁boilers	-3037
▁charged	-3038
▁divided	-3039
▁catalyst	-3040
▁included	-3041
▁provided	-3042
▁supplies	-3043
▁additives	-3044
▁reduction	-3045
▁viscosity	-3046
▁Advantages	-3047
▁lubrication	-3048
▁monochromatic	-3049
▁perpendicular	-3050
RD	-3051
▁∮	-3052
▁	-3053
	-3054
Sin	-3055
TER	-3056
ets	-3057
ita	-3058
nts	-3059
ote	-3060
▁40	-3061
▁80	-3062
onom	-3063
rate	-3064
▁(4)	-3065
▁(5)	-3066
▁Alk	-3067
▁Pop	-3068
▁ill	-3069
▁own	-3070
▁sem	-3071
▁tun	-3072
0000(	-3073
heric	-3074
idity	-3075
vered	-3076
▁100/	-3077
▁Each	-3078
▁Land	-3079
▁MgCl	-3080
▁book	-3081
▁curl	-3082
▁keep	-3083
nesium	-3084
rophic	-3085
▁Money	-3086
▁final	-3087
▁store	-3088
soluble	-3089
▁beings	-3090
▁filter	-3091
▁origin	-3092
▁spread	-3093
▁possess	-3094
▁rapidly	-3095
▁reserve	-3096
▁moisture	-3097
▁producer	-3098
▁Condition	-3099
▁Corrosion	-3100
▁including	-3101
▁magnitude	-3102
▁Diffraction	-3103
▁uncertainty	-3104
(1	-3105
-2	-3106
CH	-3107
FC	-3108
MC	-3109
So	-3110
▁ρ	-3111
▁NO	-3112
	-3113
ipts	-3114
lene	-3115
lied	-3116
reme	-3117
year	-3118
▁EIA	-3119
▁EIS	-3120
▁Min	-3121
▁def	-3122
▁imm	-3123
▁ine	-3124
▁say	-3125
▁sug	-3126
inary	-3127
ticip	-3128
▁Cent	-3129
▁days	-3130
▁mode	-3131
bility	-3132
cedure	-3133
ending	-3134
rength	-3135
▁alloc	-3136
▁circu	-3137
▁plate	-3138
▁regul	-3139
▁tends	-3140
ameters	-3141
eration	-3142
ributed	-3143
▁action	-3144
▁actual	-3145
▁always	-3146
▁techni	-3147
▁though	-3148
ervation	-3149
▁Surface	-3150
▁anticip	-3151
▁complex	-3152
▁private	-3153
▁remains	-3154
lasticity	-3155
▁Monetary	-3156
▁Solution	-3157
▁landfill	-3158
▁problems	-3159
▁Management	-3160
▁acceptance	-3161
".	-3162
21	-3163
2?	-3164
49	-3165
87	-3166
=1	-3167
ky	-3168
	-3169
	-3170
acu	-3171
max	-3172
,10)	-3173
SION	-3174
ards	-3175
ious	-3176
lets	-3177
oses	-3178
sect	-3179
view	-3180
▁5.1	-3181
▁Due	-3182
aches	-3183
acuum	-3184
arily	-3185
point	-3186
rated	-3187
▁6000	-3188
▁coll	-3189
▁meet	-3190
▁ruby	-3191
▁sect	-3192
▁thus	-3193
▁view	-3194
abilit	-3195
arbons	-3196
▁Subst	-3197
▁begin	-3198
▁eigen	-3199
▁fuels	-3200
▁today	-3201
uration	-3202
▁10,000	-3203
▁Theory	-3204
▁curren	-3205
▁inside	-3206
▁mainly	-3207
▁needed	-3208
▁rating	-3209
▁upward	-3210
▁Perfect	-3211
▁Primary	-3212
▁Salvage	-3213
▁Special	-3214
▁improve	-3215
▁savings	-3216
▁several	-3217
▁similar	-3218
▁towards	-3219
▁bicarbon	-3220
▁elements	-3221
▁question	-3222
▁Character	-3223
▁Institute	-3224
▁explained	-3225
▁substitut	-3226
iodiversity	-3227
▁independent	-3228
dt	-3229
anj	-3230
arg	-3231
bur	-3232
lay	-3233
rel	-3234
▁-3	-3235
▁26	-3236
▁er	-3237
▁gm	-3238
cule	-3239
▁1.5	-3240
▁800	-3241
▁Dry	-3242
▁Rec	-3243
▁cho	-3244
▁she	-3245
hetic	-3246
ribut	-3247
ulfur	-3248
quifer	-3249
▁Circu	-3250
▁behav	-3251
▁since	-3252
▁steps	-3253
ormally	-3254
osphere	-3255
▁agents	-3256
▁closed	-3257
▁fibers	-3258
▁wastes	-3259
▁Central	-3260
▁finding	-3261
▁machine	-3262
▁passing	-3263
▁revenue	-3264
▁satisfy	-3265
▁theorem	-3266
▁trapped	-3267
▁workers	-3268
treatment	-3269
▁cathodic	-3270
▁ignition	-3271
▁referred	-3272
▁generated	-3273
▁influence	-3274
▁atmosphere	-3275
▁decreasing	-3276
24	-3277
36	-3278
AP	-3279
PF	-3280
,7,	-3281
10%	-3282
Com	-3283
ask	-3284
col	-3285
let	-3286
use	-3287
▁Le	-3288
anes	-3289
aper	-3290
ried	-3291
▁0.0	-3292
▁Fil	-3293
▁Wor	-3294
▁dry	-3295
▁fla	-3296
▁hyd	-3297
▁⃗⃗⃗	-3298
Waste	-3299
ables	-3300
haust	-3301
imple	-3302
▁Perm	-3303
▁coal	-3304
▁half	-3305
▁stat	-3306
▁task	-3307
▁volt	-3308
ecause	-3309
lusive	-3310
oaming	-3311
▁Sulph	-3312
▁beams	-3313
▁model	-3314
tration	-3315
▁Second	-3316
▁System	-3317
▁harmon	-3318
▁opport	-3319
▁placed	-3320
▁raises	-3321
▁saving	-3322
▁charges	-3323
▁devices	-3324
▁limited	-3325
economics	-3326
▁agricult	-3327
▁changing	-3328
▁criteria	-3329
▁domestic	-3330
▁reserves	-3331
▁undertak	-3332
▁wavelets	-3333
▁Sometimes	-3334
▁calorific	-3335
▁corrosive	-3336
▁efficient	-3337
▁softening	-3338
▁Technology	-3339
▁securities	-3340
▁coefficient	-3341
▁productivity	-3342
▁corresponding	-3343
56	-3344
63	-3345
AG	-3346
PO	-3347
TR	-3348
kT	-3349
ext	-3350
ond	-3351
qpp	-3352
ull	-3353
▁1/	-3354
▁Ab	-3355
▁Au	-3356
▁el	-3357
▁es	-3358
▁od	-3359
▁te	-3360
rams	-3361
rete	-3362
▁0.5	-3363
▁fas	-3364
▁put	-3365
ators	-3366
▁loop	-3367
▁poor	-3368
▁sold	-3369
▁Const	-3370
▁cryst	-3371
▁issue	-3372
▁theis	-3373
oherent	-3374
posable	-3375
▁20,000	-3376
▁Period	-3377
▁Volume	-3378
▁entire	-3379
▁expand	-3380
▁faster	-3381
▁motion	-3382
▁tropic	-3383
function	-3384
ynthetic	-3385
▁ability	-3386
▁leading	-3387
▁members	-3388
▁undergo	-3389
▁1,00,000	-3390
▁alkaline	-3391
▁multiple	-3392
▁molecular	-3393
▁regarding	-3394
▁definition	-3395
▁ecological	-3396
▁application	-3397
NG	-3398
cp	-3399
xt	-3400
▁]	-3401
	-3402
ENT	-3403
QPP	-3404
cyc	-3405
ira	-3406
ule	-3407
unh	-3408
▁2?	-3409
▁5%	-3410
draw	-3411
gest	-3412
ient	-3413
▁Bef	-3414
▁Est	-3415
▁arr	-3416
▁far	-3417
▁fav	-3418
▁nar	-3419
avity	-3420
echan	-3421
orrow	-3422
▁CaCl	-3423
▁Flow	-3424
▁More	-3425
▁exch	-3426
▁five	-3427
▁happ	-3428
▁head	-3429
▁next	-3430
▁test	-3431
▁ways	-3432
,10,4)	-3433
20,000	-3434
esides	-3435
▁Noise	-3436
▁close	-3437
▁miner	-3438
▁nutri	-3439
▁recyc	-3440
▁sides	-3441
angible	-3442
ediment	-3443
version	-3444
▁Before	-3445
▁Liquid	-3446
▁Proble	-3447
▁Screen	-3448
▁Sodium	-3449
▁appear	-3450
▁aspect	-3451
▁degree	-3452
▁longer	-3453
▁unions	-3454
▁vacuum	-3455
▁aerobic	-3456
▁amounts	-3457
▁correct	-3458
▁creates	-3459
▁whether	-3460
sequently	-3461
▁Physical	-3462
▁accounts	-3463
▁discount	-3464
▁rational	-3465
iminishing	-3466
▁numerical	-3467
▁Electrical	-3468
▁Population	-3469
▁developing	-3470
▁pollutants	-3471
▁composition	-3472
▁compression	-3473
,9	-3474
An	-3475
ND	-3476
gn	-3477
ded	-3478
erg	-3479
lan	-3480
wor	-3481
▁4.	-3482
▁DD	-3483
▁Us	-3484
▁kg	-3485
ense	-3486
erse	-3487
rolo	-3488
vest	-3489
▁10,	-3490
▁Air	-3491
▁emb	-3492
asing	-3493
ciety	-3494
duced	-3495
graph	-3496
imode	-3497
quare	-3498
▁1200	-3499
▁draw	-3500
▁fail	-3501
▁scar	-3502
▁semi	-3503
▁util	-3504
encies	-3505
nected	-3506
▁clean	-3507
▁monit	-3508
▁therm	-3509
▁vapor	-3510
ressure	-3511
▁Normal	-3512
▁assume	-3513
▁damage	-3514
▁remove	-3515
▁solids	-3516
▁sulfur	-3517
▁assumed	-3518
▁Exchange	-3519
▁original	-3520
▁strength	-3521
▁batteries	-3522
▁dispersed	-3523
▁existence	-3524
▁inelastic	-3525
▁positions	-3526
▁procedure	-3527
▁inhibitors	-3528
▁interaction	-3529
▁opportunity	-3530
(0	-3531
13	-3532
17	-3533
Fe	-3534
xm	-3535
▁u	-3536
−	-3537
222	-3538
B⃗⃗	-3539
ann	-3540
cel	-3541
dle	-3542
off	-3543
oxy	-3544
tiE	-3545
vex	-3546
way	-3547
	-3548
	-3549
ABOA	-3550
OAOB	-3551
ogen	-3552
wise	-3553
▁(2.	-3554
▁Par	-3555
▁cir	-3556
▁lif	-3557
4,000	-3558
iddle	-3559
iscal	-3560
pping	-3561
raunh	-3562
▁3000	-3563
▁NaOH	-3564
▁Remo	-3565
▁here	-3566
▁rele	-3567
▁thin	-3568
▁turb	-3569
▁uses	-3570
elling	-3571
ifying	-3572
irable	-3573
mental	-3574
▁Alkal	-3575
▁Evalu	-3576
▁arrow	-3577
▁branc	-3578
▁cases	-3579
▁fibre	-3580
▁joint	-3581
▁month	-3582
▁optic	-3583
▁sched	-3584
▁steel	-3585
develop	-3586
essment	-3587
▁Consum	-3588
▁Define	-3589
▁Derive	-3590
▁Ground	-3591
▁Obtain	-3592
▁Public	-3593
▁Because	-3594
▁Capital	-3595
▁Electro	-3596
▁Measure	-3597
▁incomes	-3598
▁contamin	-3599
▁downward	-3600
▁harmonic	-3601
▁molecule	-3602
▁receipts	-3603
▁residual	-3604
▁Intensity	-3605
▁Permanent	-3606
▁Treatment	-3607
▁intersect	-3608
▁otherwise	-3609
▁transport	-3610
▁additional	-3611
▁electronic	-3612
▁evaluation	-3613
▁generation	-3614
▁understand	-3615
▁Temperature	-3616
▁combination	-3617
▁dimensional	-3618
▁responsible	-3619
)-	-3620
77	-3621
96	-3622
HS	-3623
Ne	-3624
Re	-3625
dB	-3626
pr	-3627
yn	-3628
acr	-3629
ges	-3630
▁Cr	-3631
ativ	-3632
osed	-3633
rude	-3634
▁300	-3635
▁Aut	-3636
▁PbO	-3637
▁Rob	-3638
agula	-3639
comes	-3640
organ	-3641
▁Also	-3642
ansion	-3643
▁chrom	-3644
▁decay	-3645
▁undes	-3646
▁write	-3647
▁Solids	-3648
▁anodic	-3649
▁around	-3650
▁center	-3651
▁comput	-3652
▁fields	-3653
▁narrow	-3654
▁screen	-3655
▁tunnel	-3656
▁General	-3657
▁Present	-3658
▁annuity	-3659
▁applied	-3660
▁Cracking	-3661
▁Quantity	-3662
▁coatings	-3663
▁normally	-3664
▁operator	-3665
▁separate	-3666
▁Reduction	-3667
▁depending	-3668
▁discussed	-3669
▁electroly	-3670
geochemical	-3671
▁Elasticity	-3672
▁consisting	-3673
▁facilities	-3674
▁mechanical	-3675
▁Schrodinger	-3676
▁institution	-3677
▁hydrocarbons	-3678
▁requirements	-3679
'.	-3680
:?	-3681
EL	-3682
II	-3683
Ni	-3684
kg	-3685
kk	-3686
kz	-3687
▁α	-3688
ANT	-3689
UBR	-3690
URE	-3691
aid	-3692
▁CH	-3693
▁FI	-3694
000-	-3695
QPPQ	-3696
emic	-3697
radi	-3698
rent	-3699
▁1.0	-3700
▁15%	-3701
▁4.1	-3702
▁Che	-3703
▁GDP	-3704
▁Rel	-3705
▁hol	-3706
▁mis	-3707
▁old	-3708
▁rup	-3709
▁see	-3710
	-3711
UBRIC	-3712
agnet	-3713
elves	-3714
ember	-3715
stain	-3716
▁Draw	-3717
▁MgSO	-3718
▁With	-3719
▁gold	-3720
▁rich	-3721
▁weak	-3722
anging	-3723
▁First	-3724
▁Green	-3725
▁Super	-3726
▁advan	-3727
▁exact	-3728
▁intro	-3729
▁schem	-3730
▁Ampere	-3731
▁Atmosp	-3732
▁Cathod	-3733
▁Fraunh	-3734
▁LUBRIC	-3735
▁alumin	-3736
▁cycles	-3737
▁except	-3738
▁fringe	-3739
▁labour	-3740
▁linear	-3741
▁mostly	-3742
particle	-3743
▁Average	-3744
▁Calcium	-3745
▁convert	-3746
▁desired	-3747
▁kinetic	-3748
▁numbers	-3749
▁radical	-3750
▁sliding	-3751
▁sustain	-3752
▁voltage	-3753
	-3754
developed	-3755
▁Hydrogen	-3756
▁Industry	-3757
▁Mathemat	-3758
▁boundary	-3759
▁building	-3760
▁expenses	-3761
▁concerned	-3762
dimensional	-3763
▁Electronic	-3764
▁acceptable	-3765
▁collection	-3766
▁dispersion	-3767
▁preference	-3768
▁prevention	-3769
▁resistance	-3770
▁sufficient	-3771
▁uncertaint	-3772
▁Development	-3773
▁controlling	-3774
▁contribution	-3775
▁Characteristics	-3776
RS	-3777
yt	-3778
,8,	-3779
xic	-3780
▁&?	-3781
▁5.	-3782
▁90	-3783
(0.1	-3784
oper	-3785
plus	-3786
ream	-3787
▁0.2	-3788
▁EAW	-3789
▁HCV	-3790
▁Ind	-3791
▁Lap	-3792
▁bio	-3793
▁bon	-3794
atory	-3795
usion	-3796
▁1500	-3797
▁Fore	-3798
▁Hard	-3799
▁Year	-3800
▁bear	-3801
▁fine	-3802
▁puls	-3803
▁seen	-3804
▁0.000	-3805
▁Basic	-3806
▁audit	-3807
▁clear	-3808
▁cross	-3809
▁deals	-3810
▁emuls	-3811
▁moves	-3812
▁pract	-3813
▁third	-3814
rinking	-3815
▁15,000	-3816
▁Invest	-3817
▁centre	-3818
▁chains	-3819
▁grease	-3820
▁impact	-3821
▁manner	-3822
▁square	-3823
ousehold	-3824
▁0.003($	-3825
▁allowed	-3826
▁aquifer	-3827
▁inverse	-3828
▁sectors	-3829
▁studies	-3830
▁zeolite	-3831
gradation	-3832
▁machines	-3833
▁operates	-3834
▁students	-3835
▁utilized	-3836
▁withdraw	-3837
▁inorganic	-3838
▁presented	-3839
▁purchased	-3840
▁switching	-3841
▁thickness	-3842
▁Comparison	-3843
▁accounting	-3844
▁impurities	-3845
▁competitive	-3846
▁inflationary	-3847
▁redistribution	-3848
)]	-3849
▁	-3850
e	-3851
i	-3852
t	-3853
n	-3854
a	-3855
s	-3856
o	-3857
r	-3858
l	-3859
c	-3860
h	-3861
d	-3862
p	-3863
u	-3864
m	-3865
f	-3866
:	-3867
w	-3868
g	-3869
A	-3870
y	-3871
.	-3872
b	-3873
v	-3874
k	-3875
x	-3876
0	-3877
,	-3878
E	-3879
?	-3880
)	-3881
2	-3882
T	-3883
1	-3884
(	-3885
I	-3886
C	-3887
-	-3888
=	-3889
P	-3890
S	-3891
W	-3892
5	-3893
q	-3894
O	-3895
3	-3896
R	-3897
⃗	-3898
N	-3899
4	-3900
D	-3901
B	-3902
F	-3903
H	-3904
+	-3905
M	-3906
/	-3907
6	-3908
L	-3909
'	-3910
8	-3911
7	-3912
z	-3913
G	-3914
9	-3915
&	-3916
V	-3917
j	-3918
%	-3919
−	-3920
_	-3921
Q	-3922
	-3923
U	-3924
∂	-3925
	-3926
	-3927
"	-3928
	-3929
∇	-3930
→	-3931
K	-3932
μ	-3933
	-3934
;	-3935
	-3936
Y	-3937
×	-3938
>	-3939
λ	-3940
X	-3941
φ	-3942
[	-3943
]	-3944
	-3945
	-3946
	-3947
ε	-3948
J	-3949
θ	-3950
Z	-3951
ψ	-3952
	-3953
	-3954
<	-3955
π	-3956
	-3957
	-3958
*	-3959
$	-3960
√	-3961
ν	-3962
	-3963
̂	-3964
¬	-3965
ω	-3966
	-3967
	-3968
Å	-3969
î	-3970
σ	-3971
	-3972
	-3973
	-3974
	-3975
	-3976
	-3977
ĵ	-3978
	-3979
	-3980
	-3981
	-3982
	-3983
°	-3984
Ψ	-3985
	-3986
	-3987
	-3988
	-3989
✓	-3990
	-3991
α	-3992
ρ	-3993
	-3994
∮	-3995
~	-3996
