<unk>	0
<s>	0
</s>	0
er	-0
▁t	-1
in	-2
▁a	-3
▁A	-4
es	-5
▁o	-6
at	-7
on	-8
▁th	-9
is	-10
en	-11
re	-12
▁c	-13
al	-14
▁s	-15
▁of	-16
ic	-17
▁the	-18
ion	-19
▁p	-20
an	-21
ro	-22
▁An	-23
wer	-24
it	-25
▁As	-26
swer	-27
▁Ask	-28
▁Answer	-29
▁w	-30
ed	-31
or	-32
▁f	-33
▁b	-34
ing	-35
ar	-36
▁m	-37
ct	-38
▁in	-39
ent	-40
▁T	-41
le	-42
▁E	-43
▁D	-44
▁d	-45
as	-46
▁is	-47
he	-48
nd	-49
ri	-50
▁e	-51
ain	-52
ol	-53
us	-54
il	-55
▁this	-56
▁C	-57
rib	-58
▁l	-59
▁Des	-60
crib	-61
cribe	-62
▁Describe	-63
▁to	-64
pl	-65
▁and	-66
▁Ex	-67
▁I	-68
ur	-69
▁h	-70
ation	-71
▁The	-72
ater	-73
plain	-74
▁Explain	-75
ess	-76
▁are	-77
id	-78
et	-79
om	-80
▁g	-81
os	-82
▁S	-83
▁P	-84
▁re	-85
el	-86
ul	-87
▁(	-88
um	-89
te	-90
▁or	-91
▁for	-92
iv	-93
▁pro	-94
ment	-95
▁n	-96
ce	-97
▁water	-98
od	-99
▁W	-100
ut	-101
▁con	-102
ir	-103
▁be	-104
▁r	-105
▁&	-106
ow	-107
▁H	-108
her	-109
▁i	-110
▁1	-111
ly	-112
ch	-113
▁v	-114
▁•	-115
qu	-116
▁M	-117
act	-118
ical	-119
ig	-120
ge	-121
▁It	-122
▁as	-123
▁2	-124
▁com	-125
ant	-126
ith	-127
ure	-128
ate	-129
▁en	-130
per	-131
▁with	-132
▁wh	-133
▁by	-134
ot	-135
ity	-136
if	-137
un	-138
ub	-139
▁N	-140
ter	-141
ard	-142
▁B	-143
▁de	-144
am	-145
ab	-146
im	-147
▁R	-148
ys	-149
ad	-150
▁can	-151
▁L	-152
▁us	-153
▁F	-154
ies	-155
▁so	-156
und	-157
▁an	-158
cess	-159
du	-160
ap	-161
▁Wh	-162
rom	-163
00	-164
igh	-165
▁al	-166
▁at	-167
▁on	-168
ich	-169
em	-170
▁=	-171
ud	-172
▁+	-173
▁O	-174
▁ex	-175
▁which	-176
iron	-177
sion	-178
ust	-179
▁st	-180
lect	-181
ine	-182
ect	-183
ver	-184
ist	-185
▁ch	-186
▁from	-187
ric	-188
viron	-189
ial	-190
vironment	-191
st	-192
▁met	-193
▁G	-194
aste	-195
--	-196
▁form	-197
▁What	-198
ts	-199
▁cont	-200
ive	-201
▁In	-202
▁it	-203
▁Th	-204
ous	-205
▁comp	-206
mo	-207
able	-208
ff	-209
orro	-210
ve	-211
▁li	-212
ec	-213
low	-214
ay	-215
here	-216
ke	-217
▁process	-218
ac	-219
▁oil	-220
▁metal	-221
hem	-222
gy	-223
▁res	-224
ers	-225
▁he	-226
ions	-227
reas	-228
▁–	-229
▁pre	-230
gen	-231
▁inc	-232
gan	-233
ium	-234
▁co	-235
▁mo	-236
hemical	-237
▁corro	-238
ating	-239
ness	-240
▁pr	-241
CO	-242
ated	-243
oil	-244
ph	-245
▁dis	-246
iz	-247
est	-248
tem	-249
ill	-250
▁used	-251
▁tem	-252
ardness	-253
ystem	-254
▁that	-255
▁ii	-256
▁le	-257
ag	-258
yd	-259
ction	-260
ue	-261
▁su	-262
ubric	-263
ane	-264
ents	-265
▁3	-266
▁corrosion	-267
ass	-268
lud	-269
▁pl	-270
art	-271
aus	-272
▁environment	-273
ip	-274
ces	-275
red	-276
▁high	-277
▁per	-278
▁produ	-279
ace	-280
▁elect	-281
▁ad	-282
and	-283
arb	-284
ition	-285
ution	-286
our	-287
▁ha	-288
age	-289
▁Pro	-290
▁sur	-291
▁boil	-292
cos	-293
ese	-294
uel	-295
▁ox	-296
ber	-297
ary	-298
pos	-299
▁cal	-300
ature	-301
rou	-302
▁sh	-303
▁sp	-304
oc	-305
ates	-306
ide	-307
▁gas	-308
vel	-309
ved	-310
▁Ca	-311
ants	-312
ydro	-313
end	-314
arbon	-315
yp	-316
ence	-317
▁react	-318
th	-319
▁sol	-320
▁surf	-321
ime	-322
ergy	-323
ak	-324
▁lubric	-325
▁k	-326
▁En	-327
▁temper	-328
gh	-329
▁→	-330
▁5	-331
olo	-332
▁po	-333
ally	-334
▁im	-335
oll	-336
ood	-337
▁hardness	-338
por	-339
atur	-340
ther	-341
ib	-342
yc	-343
ost	-344
se	-345
▁ac	-346
ange	-347
ree	-348
▁like	-349
to	-350
▁-	-351
erm	-352
ance	-353
▁Mg	-354
▁chemical	-355
Cl	-356
▁ab	-357
▁Con	-358
ganic	-359
▁waste	-360
cal	-361
ener	-362
aterial	-363
ors	-364
cosystem	-365
▁ph	-366
ific	-367
reat	-368
▁caus	-369
▁dec	-370
ach	-371
▁energy	-372
ath	-373
unt	-374
ound	-375
ygen	-376
▁CO	-377
▁sub	-378
rough	-379
▁This	-380
▁fuel	-381
▁material	-382
▁add	-383
eed	-384
ode	-385
▁col	-386
SO	-387
own	-388
op	-389
▁100	-390
umber	-391
fer	-392
▁sal	-393
sol	-394
ress	-395
▁em	-396
▁comb	-397
▁have	-398
▁remo	-399
▁pres	-400
so	-401
ans	-402
ell	-403
▁et	-404
cul	-405
ten	-406
▁was	-407
ry	-408
ight	-409
atter	-410
ite	-411
ron	-412
▁U	-413
▁typ	-414
▁un	-415
▁hydro	-416
▁etc	-417
quid	-418
arge	-419
▁into	-420
aw	-421
pt	-422
▁4	-423
▁not	-424
▁0	-425
▁V	-426
uld	-427
▁cond	-428
ari	-429
reatment	-430
▁eff	-431
▁contain	-432
▁surface	-433
▁temperature	-434
tr	-435
wo	-436
▁se	-437
▁low	-438
▁includ	-439
ould	-440
▁amo	-441
▁also	-442
ici	-443
ire	-444
pert	-445
▁bet	-446
▁part	-447
▁und	-448
▁boiler	-449
▁through	-450
ps	-451
ase	-452
les	-453
▁equ	-454
▁other	-455
orm	-456
▁ag	-457
ely	-458
----	-459
▁fol	-460
▁cons	-461
▁>	-462
vent	-463
▁two	-464
all	-465
▁Re	-466
port	-467
yl	-468
▁me	-469
reases	-470
▁follow	-471
ob	-472
▁They	-473
▁Na	-474
▁number	-475
io	-476
ix	-477
ple	-478
▁vari	-479
we	-480
▁has	-481
▁rate	-482
▁requ	-483
ia	-484
▁K	-485
king	-486
▁Al	-487
▁we	-488
▁Dis	-489
▁dif	-490
▁0.	-491
ween	-492
:-	-493
▁between	-494
)2	-495
▁spec	-496
▁gener	-497
▁where	-498
▁amount	-499
ome	-500
ult	-501
▁These	-502
▁ecosystem	-503
▁may	-504
▁val	-505
ms	-506
▁ste	-507
▁such	-508
cur	-509
▁lo	-510
▁due	-511
led	-512
▁press	-513
▁liquid	-514
ollution	-515
OH	-516
▁fil	-517
▁sod	-518
rease	-519
▁they	-520
ject	-521
▁should	-522
▁pressure	-523
av	-524
ens	-525
▁Ph	-526
▁gr	-527
ulph	-528
▁combust	-529
▁over	-530
▁Water	-531
osp	-532
ives	-533
gical	-534
vironmental	-535
▁10	-536
▁iii	-537
▁level	-538
▁under	-539
▁:	-540
ied	-541
▁acid	-542
ations	-543
▁kn	-544
▁act	-545
▁eng	-546
▁par	-547
itt	-548
rol	-549
▁salts	-550
enc	-551
▁St	-552
iner	-553
▁man	-554
ology	-555
▁various	-556
der	-557
▁Ch	-558
▁all	-559
▁redu	-560
▁partic	-561
tern	-562
▁oxygen	-563
lor	-564
▁oc	-565
ible	-566
▁abo	-567
▁more	-568
solved	-569
ines	-570
ond	-571
ages	-572
▁det	-573
▁use	-574
▁occur	-575
▁subst	-576
gr	-577
ene	-578
▁cl	-579
ired	-580
ling	-581
pend	-582
ides	-583
ctane	-584
▁when	-585
▁propert	-586
▁De	-587
▁tr	-588
round	-589
▁comm	-590
atural	-591
OD	-592
up	-593
ile	-594
par	-595
res	-596
▁vol	-597
▁types	-598
zard	-599
▁Com	-600
▁alk	-601
▁out	-602
ility	-603
▁materials	-604
cip	-605
oss	-606
▁ma	-607
ities	-608
rop	-609
▁cr	-610
▁lead	-611
▁electron	-612
▁Environmental	-613
ail	-614
ced	-615
tic	-616
ual	-617
▁ind	-618
▁most	-619
▁oils	-620
pro	-621
▁1.	-622
▁If	-623
▁time	-624
▁value	-625
▁ne	-626
cent	-627
▁ver	-628
▁wor	-629
ere	-630
▁mix	-631
▁main	-632
▁organic	-633
▁combustion	-634
atic	-635
obic	-636
▁air	-637
▁but	-638
▁formation	-639
int	-640
ise	-641
ency	-642
▁flow	-643
▁ap	-644
tain	-645
vant	-646
▁Cal	-647
acter	-648
▁soil	-649
ang	-650
▁Ind	-651
igher	-652
▁ions	-653
▁their	-654
▁metals	-655
▁environmental	-656
ick	-657
ize	-658
ume	-659
ludge	-660
▁When	-661
▁prote	-662
▁solid	-663
▁these	-664
▁present	-665
▁following	-666
▁ec	-667
▁cyc	-668
▁sof	-669
▁fact	-670
▁treatment	-671
ru	-672
fin	-673
▁qu	-674
ving	-675
▁cell	-676
vantages	-677
▁product	-678
yn	-679
▁6	-680
ily	-681
▁chain	-682
▁required	-683
Na	-684
ii	-685
▁Pb	-686
▁Pre	-687
▁bec	-688
rim	-689
uman	-690
▁cath	-691
▁dist	-692
ternal	-693
▁differ	-694
▁system	-695
ological	-696
ful	-697
cipit	-698
ganis	-699
ments	-700
ounds	-701
erobic	-702
ources	-703
ear	-704
ign	-705
▁mg	-706
mosp	-707
arg	-708
ish	-709
ong	-710
▁2)	-711
▁Ad	-712
▁av	-713
water	-714
▁soap	-715
ration	-716
▁Waste	-717
▁there	-718
▁ro	-719
ared	-720
odic	-721
ract	-722
▁must	-723
▁some	-724
▁parts	-725
),	-726
urn	-727
▁1)	-728
▁eas	-729
velop	-730
zardous	-731
▁dissolved	-732
ks	-733
▁8	-734
ule	-735
ings	-736
▁BOD	-737
ances	-738
▁mole	-739
▁very	-740
▁batter	-741
▁Hardness	-742
▁bas	-743
▁pet	-744
press	-745
▁CaCO	-746
▁heat	-747
▁called	-748
▁higher	-749
▁prevent	-750
icro	-751
ample	-752
▁oxid	-753
reen	-754
▁cap	-755
▁pol	-756
▁oper	-757
▁then	-758
change	-759
▁known	-760
▁formed	-761
▁Process	-762
10	-763
val	-764
▁its	-765
icient	-766
▁three	-767
aph	-768
vol	-769
▁For	-770
its	-771
cale	-772
cium	-773
ative	-774
ization	-775
▁comple	-776
▁effect	-777
IS	-778
HCO	-779
ays	-780
▁Bi	-781
▁By	-782
▁area	-783
▁food	-784
centration	-785
ox	-786
aces	-787
ized	-788
▁gases	-789
▁solution	-790
urb	-791
▁bi	-792
▁no	-793
▁up	-794
alys	-795
▁human	-796
▁removed	-797
ose	-798
ator	-799
ffect	-800
▁down	-801
▁sour	-802
▁than	-803
ganisms	-804
ination	-805
osph	-806
▁will	-807
ential	-808
▁chlor	-809
▁inter	-810
▁sodium	-811
▁electro	-812
▁species	-813
▁precipit	-814
▁7	-815
ind	-816
tion	-817
▁reaction	-818
▁compounds	-819
▁pollution	-820
12	-821
itu	-822
▁Cont	-823
▁emul	-824
itions	-825
▁iv	-826
▁Law	-827
▁bot	-828
▁giv	-829
▁tak	-830
▁need	-831
▁micro	-832
▁includes	-833
AN	-834
gn	-835
old	-836
▁How	-837
▁Sol	-838
pared	-839
▁sound	-840
▁using	-841
▁compon	-842
▁engine	-843
▁sludge	-844
▁develop	-845
▁lubricants	-846
pm	-847
ons	-848
duct	-849
▁rec	-850
econd	-851
ified	-852
ption	-853
waste	-854
▁Fuel	-855
▁There	-856
iciency	-857
▁octane	-858
ON	-859
▁z	-860
ore	-861
ram	-862
ves	-863
fill	-864
form	-865
iesel	-866
rical	-867
ually	-868
▁Elect	-869
▁steam	-870
aracter	-871
▁‘	-872
eol	-873
ife	-874
▁2.	-875
ever	-876
ival	-877
▁pass	-878
carbon	-879
agement	-880
▁different	-881
▁electrons	-882
ra	-883
are	-884
vic	-885
ollut	-886
▁added	-887
▁order	-888
▁depend	-889
▁determ	-890
▁soften	-891
▁prepared	-892
▁y	-893
ics	-894
one	-895
▁one	-896
▁Where	-897
▁carbon	-898
).	-899
▁9	-900
▁Q	-901
ast	-902
fic	-903
▁Co	-904
▁Ox	-905
fter	-906
▁get	-907
▁hel	-908
▁good	-909
▁presence	-910
▁conditions	-911
SW	-912
ex	-913
ech	-914
▁Cr	-915
ular	-916
▁MSW	-917
▁des	-918
▁lay	-919
▁non	-920
▁dire	-921
atures	-922
▁Hydro	-923
▁invol	-924
portant	-925
raction	-926
▁factors	-927
100	-928
▁20	-929
▁3)	-930
apor	-931
▁reg	-932
asure	-933
▁less	-934
▁large	-935
%,	-936
ER	-937
3)2	-938
▁resp	-939
▁size	-940
▁cause	-941
▁given	-942
▁sulph	-943
▁contains	-944
▁surfaces	-945
+2	-946
ier	-947
oid	-948
uch	-949
over	-950
▁pot	-951
ittle	-952
▁prov	-953
ysical	-954
ability	-955
▁collect	-956
▁particles	-957
get	-958
jor	-959
▁Sc	-960
uble	-961
▁any	-962
▁cre	-963
▁alkal	-964
▁content	-965
▁greases	-966
▁reactions	-967
AT	-968
IA	-969
IC	-970
▁Ag	-971
▁At	-972
▁He	-973
▁SO	-974
▁Mod	-975
▁cat	-976
▁ign	-977
▁above	-978
▁anode	-979
▁class	-980
▁trans	-981
fficient	-982
▁lubricant	-983
2)	-984
2,	-985
eng	-986
ause	-987
▁Gas	-988
ering	-989
ivity	-990
▁lime	-991
charge	-992
▁temperatures	-993
▁Z	-994
sor	-995
▁Ac	-996
▁sc	-997
iter	-998
leum	-999
ycle	-1000
▁rel	-1001
▁mass	-1002
roleum	-1003
▁lower	-1004
andfill	-1005
▁Lubric	-1006
▁Ecosystem	-1007
▁processes	-1008
▁j	-1009
▁“	-1010
van	-1011
▁19	-1012
▁fl	-1013
echn	-1014
inim	-1015
▁Laws	-1016
▁appl	-1017
▁avail	-1018
▁power	-1019
▁conver	-1020
▁resist	-1021
▁source	-1022
▁volume	-1023
advantages	-1024
▁important	-1025
▁properties	-1026
br	-1027
hib	-1028
rin	-1029
▁50	-1030
▁So	-1031
▁if	-1032
▁ob	-1033
▁Tem	-1034
▁cur	-1035
▁lim	-1036
▁temp	-1037
orific	-1038
▁Solid	-1039
ulation	-1040
▁change	-1041
▁easily	-1042
▁cathode	-1043
▁measure	-1044
▁condition	-1045
▁components	-1046
20	-1047
50	-1048
Ca	-1049
ett	-1050
ude	-1051
umn	-1052
▁ent	-1053
▁vis	-1054
uring	-1055
▁each	-1056
▁free	-1057
rimary	-1058
▁major	-1059
organic	-1060
▁affect	-1061
▁atmosp	-1062
▁column	-1063
▁matter	-1064
position	-1065
▁molecul	-1066
▁natural	-1067
▁protect	-1068
▁available	-1069
row	-1070
▁No	-1071
▁br	-1072
▁Res	-1073
▁nps	-1074
▁rad	-1075
anent	-1076
▁film	-1077
▁grou	-1078
isture	-1079
▁Fuels	-1080
▁Gener	-1081
▁about	-1082
▁calcul	-1083
▁consum	-1084
▁diesel	-1085
▁disper	-1086
▁sample	-1087
▁However	-1088
▁Pollution	-1089
▁containing	-1090
▁substances	-1091
▁Disadvantages	-1092
▁,	-1093
ble	-1094
eld	-1095
▁Ec	-1096
ites	-1097
mall	-1098
hibit	-1099
cosity	-1100
▁point	-1101
▁separ	-1102
▁second	-1103
▁calcium	-1104
ochemical	-1105
▁hydrogen	-1106
▁property	-1107
▁efficiency	-1108
RE	-1109
ax	-1110
cer	-1111
oam	-1112
▁Le	-1113
▁On	-1114
alth	-1115
cing	-1116
fect	-1117
roph	-1118
▁200	-1119
inity	-1120
ively	-1121
stitu	-1122
▁hard	-1123
▁salt	-1124
▁soda	-1125
▁after	-1126
▁means	-1127
▁occurs	-1128
▁boiling	-1129
▁Chemical	-1130
▁products	-1131
▁generally	-1132
▁organisms	-1133
▁resources	-1134
▁wastewater	-1135
▁hydrocarbon	-1136
als	-1137
▁Fe	-1138
▁To	-1139
▁do	-1140
ilic	-1141
▁Man	-1142
idual	-1143
iving	-1144
▁poly	-1145
▁wast	-1146
▁zeol	-1147
▁again	-1148
▁common	-1149
▁because	-1150
▁consist	-1151
▁exchange	-1152
▁character	-1153
11	-1154
ie	-1155
agn	-1156
inal	-1157
▁Typ	-1158
▁aqu	-1159
▁mod	-1160
fined	-1161
▁hand	-1162
porary	-1163
ication	-1164
▁Natural	-1165
▁battery	-1166
▁chemicals	-1167
de	-1168
hod	-1169
ins	-1170
▁Or	-1171
ints	-1172
▁ass	-1173
▁fir	-1174
ality	-1175
▁work	-1176
itable	-1177
▁scale	-1178
▁small	-1179
▁weight	-1180
▁increas	-1181
▁chlorine	-1182
▁increase	-1183
▁operation	-1184
▁concentration	-1185
ade	-1186
ame	-1187
arm	-1188
ild	-1189
▁ar	-1190
▁ml	-1191
aust	-1192
otic	-1193
▁Sod	-1194
▁est	-1195
▁fun	-1196
▁cost	-1197
▁sett	-1198
acking	-1199
▁forms	-1200
osphate	-1201
▁Oxygen	-1202
▁direct	-1203
▁filter	-1204
▁hazardous	-1205
▁petroleum	-1206
3.	-1207
li	-1208
ann	-1209
▁ev	-1210
main	-1211
rous	-1212
uted	-1213
▁neg	-1214
etane	-1215
itives	-1216
▁while	-1217
▁causing	-1218
▁engines	-1219
▁include	-1220
EE	-1221
ION	-1222
▁sl	-1223
bers	-1224
lish	-1225
utri	-1226
▁Eng	-1227
▁ele	-1228
▁poss	-1229
▁rain	-1230
▁range	-1231
ivalent	-1232
▁Carbon	-1233
▁electrical	-1234
NT	-1235
▁Mo	-1236
ield	-1237
▁dil	-1238
ength	-1239
iding	-1240
ivers	-1241
▁burn	-1242
▁cool	-1243
▁unit	-1244
▁year	-1245
ically	-1246
▁speed	-1247
▁contam	-1248
▁indust	-1249
▁nature	-1250
▁result	-1251
▁within	-1252
iversity	-1253
▁emulsion	-1254
▁external	-1255
▁fraction	-1256
▁lubricating	-1257
BR	-1258
mg	-1259
▁Ha	-1260
▁Im	-1261
elow	-1262
oint	-1263
ruct	-1264
▁Oil	-1265
cales	-1266
oline	-1267
oring	-1268
▁perm	-1269
▁Corro	-1270
▁below	-1271
▁often	-1272
osition	-1273
ruction	-1274
▁caused	-1275
▁pollut	-1276
▁distill	-1277
▁usually	-1278
▁oxidation	-1279
▁classified	-1280
2+	-1281
2.	-1282
CV	-1283
ack	-1284
edi	-1285
ppm	-1286
the	-1287
▁Pl	-1288
▁Sp	-1289
esis	-1290
like	-1291
onit	-1292
▁ext	-1293
▁med	-1294
alvan	-1295
posal	-1296
ropic	-1297
atings	-1298
ipment	-1299
▁India	-1300
▁decom	-1301
▁limit	-1302
▁plant	-1303
▁thick	-1304
riction	-1305
▁removal	-1306
out	-1307
ros	-1308
▁am	-1309
vice	-1310
▁Det	-1311
▁day	-1312
▁sup	-1313
▁tre	-1314
idity	-1315
▁mixt	-1316
▁slow	-1317
ablish	-1318
ertain	-1319
eration	-1320
icarbon	-1321
▁Engine	-1322
▁Propert	-1323
▁inhibit	-1324
ification	-1325
▁compress	-1326
▁softening	-1327
▁substance	-1328
):	-1329
SP	-1330
not	-1331
omes	-1332
udit	-1333
were	-1334
▁loc	-1335
▁rep	-1336
orage	-1337
▁----	-1338
▁mach	-1339
▁were	-1340
▁impro	-1341
▁layer	-1342
▁cannot	-1343
▁ground	-1344
▁remain	-1345
▁boilers	-1346
▁contact	-1347
▁quality	-1348
▁protection	-1349
▁lubrication	-1350
AL	-1351
PP	-1352
▁[	-1353
ata	-1354
ory	-1355
▁DO	-1356
arth	-1357
ases	-1358
cept	-1359
onom	-1360
sive	-1361
ures	-1362
▁imp	-1363
▁tot	-1364
▁Food	-1365
▁iron	-1366
▁long	-1367
▁Cycle	-1368
▁activ	-1369
▁chang	-1370
ational	-1371
vention	-1372
▁beings	-1373
▁conduct	-1374
▁mixture	-1375
efficient	-1376
formation	-1377
▁equation	-1378
▁function	-1379
▁specific	-1380
▁Corrosion	-1381
▁potential	-1382
▁Engineering	-1383
▁development	-1384
3,	-1385
NO	-1386
oy	-1387
ake	-1388
inu	-1389
xim	-1390
rent	-1391
ries	-1392
ting	-1393
iness	-1394
▁cour	-1395
▁feed	-1396
▁them	-1397
▁React	-1398
▁oxide	-1399
▁those	-1400
alvanic	-1401
▁living	-1402
▁plants	-1403
▁Organic	-1404
▁catalys	-1405
▁produce	-1406
▁friction	-1407
▁additives	-1408
▁viscosity	-1409
)/	-1410
by	-1411
eh	-1412
ank	-1413
den	-1414
▁IT	-1415
▁di	-1416
ards	-1417
grad	-1418
rans	-1419
ynth	-1420
▁mak	-1421
▁ser	-1422
▁sim	-1423
heric	-1424
jects	-1425
▁High	-1426
▁MgCl	-1427
▁both	-1428
▁heav	-1429
▁load	-1430
▁stud	-1431
▁well	-1432
▁first	-1433
aerobic	-1434
▁Calcul	-1435
▁height	-1436
ynthesis	-1437
▁depends	-1438
▁internal	-1439
▁produced	-1440
odiversity	-1441
▁Hazardous	-1442
▁decreases	-1443
▁establish	-1444
▁Properties	-1445
ulf	-1446
side	-1447
▁law	-1448
anger	-1449
charg	-1450
tract	-1451
unity	-1452
aphite	-1453
oaming	-1454
▁quant	-1455
soluble	-1456
▁adding	-1457
▁course	-1458
▁method	-1459
▁proble	-1460
▁repres	-1461
▁wastes	-1462
▁electric	-1463
▁Advantages	-1464
▁atmosphere	-1465
RO	-1466
lo	-1467
amm	-1468
ash	-1469
ord	-1470
▁Li	-1471
ient	-1472
rate	-1473
▁Alk	-1474
▁Non	-1475
▁nit	-1476
▁roc	-1477
▁sus	-1478
Waste	-1479
acity	-1480
agnes	-1481
▁100/	-1482
▁dest	-1483
▁grow	-1484
▁term	-1485
▁type	-1486
▁Types	-1487
▁Module	-1488
▁petrol	-1489
agnesium	-1490
▁defined	-1491
▁forming	-1492
echnology	-1493
▁complete	-1494
▁gasoline	-1495
▁negative	-1496
▁physical	-1497
▁calorific	-1498
1)	-1499
me	-1500
▁3.	-1501
apse	-1502
ided	-1503
▁EIA	-1504
▁EIS	-1505
▁acc	-1506
▁car	-1507
▁cle	-1508
▁dam	-1509
▁end	-1510
itive	-1511
ylene	-1512
▁Comm	-1513
▁life	-1514
inuous	-1515
tained	-1516
▁agent	-1517
▁based	-1518
▁gives	-1519
▁mixed	-1520
▁takes	-1521
pressed	-1522
▁tropic	-1523
▁Control	-1524
▁current	-1525
mentation	-1526
▁ignition	-1527
▁moisture	-1528
▁suitable	-1529
▁ecological	-1530
▁particular	-1531
,?	-1532
3)	-1533
EM	-1534
use	-1535
▁Se	-1536
▁op	-1537
SION	-1538
fore	-1539
▁10-	-1540
▁Act	-1541
▁Fil	-1542
▁Its	-1543
▁Perm	-1544
▁loss	-1545
▁move	-1546
alysis	-1547
iteria	-1548
▁Phase	-1549
▁absor	-1550
▁cycle	-1551
▁earth	-1552
▁exist	-1553
▁fuels	-1554
▁heavy	-1555
▁nutri	-1556
▁phase	-1557
▁total	-1558
tration	-1559
▁Number	-1560
▁health	-1561
▁moving	-1562
▁against	-1563
▁certain	-1564
▁possess	-1565
▁reduces	-1566
▁bicarbon	-1567
▁landfill	-1568
ole	-1569
sec	-1570
▁4)	-1571
▁Au	-1572
▁NO	-1573
▁gm	-1574
cule	-1575
▁Air	-1576
▁Dry	-1577
▁fur	-1578
▁pos	-1579
▁ref	-1580
graph	-1581
ulfur	-1582
ynthe	-1583
▁Comp	-1584
▁bott	-1585
▁grad	-1586
▁only	-1587
▁show	-1588
ensity	-1589
▁Produ	-1590
▁Sulph	-1591
▁helps	-1592
▁local	-1593
▁minim	-1594
▁place	-1595
▁agents	-1596
▁design	-1597
ynthetic	-1598
▁dispers	-1599
▁further	-1600
treatment	-1601
▁catalyst	-1602
▁cathodic	-1603
geochemical	-1604
▁equivalent	-1605
▁inhibitors	-1606
2-	-1607
ep	-1608
lu	-1609
col	-1610
ert	-1611
erv	-1612
ner	-1613
rig	-1614
▁Cl	-1615
ered	-1616
ifer	-1617
▁dry	-1618
▁CaCl	-1619
▁gets	-1620
▁found	-1621
▁model	-1622
▁recyc	-1623
▁Determ	-1624
▁Indust	-1625
▁causes	-1626
▁during	-1627
▁useful	-1628
urbidity	-1629
▁aerobic	-1630
▁Generally	-1631
▁corrosive	-1632
▁activities	-1633
▁pollutants	-1634
▁composition	-1635
▁characterist	-1636
0%	-1637
19	-1638
45	-1639
ST	-1640
uc	-1641
att	-1642
lic	-1643
oxy	-1644
sif	-1645
atio	-1646
ched	-1647
▁Equ	-1648
▁fre	-1649
▁ion	-1650
▁run	-1651
ently	-1652
▁case	-1653
▁done	-1654
▁take	-1655
▁tend	-1656
gether	-1657
▁allow	-1658
▁avoid	-1659
▁hence	-1660
▁vapor	-1661
▁Solids	-1662
▁damage	-1663
▁alkaline	-1664
▁together	-1665
▁batteries	-1666
▁molecular	-1667
iogeochemical	-1668
.,	-1669
4,	-1670
ES	-1671
RD	-1672
hip	-1673
ock	-1674
off	-1675
▁Em	-1676
agul	-1677
face	-1678
fact	-1679
gree	-1680
ilar	-1681
less	-1682
life	-1683
ping	-1684
reak	-1685
ters	-1686
ules	-1687
ware	-1688
yram	-1689
▁Inc	-1690
▁Met	-1691
▁bod	-1692
▁ful	-1693
arine	-1694
haust	-1695
ither	-1696
rific	-1697
▁Lime	-1698
▁bran	-1699
▁coal	-1700
▁much	-1701
ission	-1702
yramid	-1703
▁Noise	-1704
▁const	-1705
▁force	-1706
▁leads	-1707
osphere	-1708
ructure	-1709
▁Energy	-1710
▁Liquid	-1711
▁Screen	-1712
▁Sodium	-1713
▁plates	-1714
▁Primary	-1715
ationship	-1716
▁contamin	-1717
▁molecule	-1718
▁Determine	-1719
▁Permanent	-1720
▁Management	-1721
▁courseware	-1722
▁electronic	-1723
▁resistance	-1724
▁coefficient	-1725
▁compression	-1726
▁established	-1727
PO	-1728
aly	-1729
ark	-1730
irc	-1731
ues	-1732
aves	-1733
nect	-1734
▁Ass	-1735
▁our	-1736
itted	-1737
olume	-1738
▁days	-1739
▁many	-1740
▁depos	-1741
▁monit	-1742
▁start	-1743
▁undes	-1744
rinking	-1745
▁cycles	-1746
▁highly	-1747
▁proper	-1748
▁remove	-1749
▁solids	-1750
▁sulfur	-1751
paration	-1752
▁positive	-1753
▁discharge	-1754
▁increases	-1755
▁production	-1756
▁hydrocarbons	-1757
NG	-1758
af	-1759
emo	-1760
iew	-1761
iii	-1762
ink	-1763
iss	-1764
oly	-1765
▁Ar	-1766
▁go	-1767
▁ri	-1768
dour	-1769
eloc	-1770
ined	-1771
ones	-1772
pose	-1773
rial	-1774
view	-1775
▁198	-1776
▁Aqu	-1777
▁Str	-1778
▁aut	-1779
▁cor	-1780
▁rub	-1781
rates	-1782
▁Cath	-1783
▁MgSO	-1784
▁NaOH	-1785
▁Remo	-1786
▁Thus	-1787
▁acts	-1788
▁give	-1789
▁vary	-1790
alance	-1791
▁Alkal	-1792
▁Green	-1793
▁makes	-1794
▁shows	-1795
▁veloc	-1796
▁Atmosp	-1797
▁Temper	-1798
▁bacter	-1799
▁points	-1800
▁rating	-1801
▁respect	-1802
▁sliding	-1803
▁consists	-1804
▁decrease	-1805
▁elements	-1806
▁residual	-1807
▁Treatment	-1808
▁stability	-1809
▁ecosystems	-1810
▁prevention	-1811
▁Temperature	-1812
)?	-1813
CH	-1814
dB	-1815
▁X	-1816
for	-1817
▁Us	-1818
ateg	-1819
bing	-1820
ring	-1821
▁PbO	-1822
▁Rec	-1823
▁mem	-1824
aries	-1825
aring	-1826
iform	-1827
posed	-1828
tific	-1829
▁Ther	-1830
▁alum	-1831
▁atom	-1832
▁back	-1833
▁embr	-1834
▁sedi	-1835
otroph	-1836
▁Silic	-1837
▁clean	-1838
▁group	-1839
▁suppl	-1840
▁anodic	-1841
▁colour	-1842
▁underg	-1843
inerator	-1844
tificial	-1845
▁control	-1846
▁follows	-1847
▁systems	-1848
ittlement	-1849
▁Cracking	-1850
▁addition	-1851
▁coatings	-1852
▁involved	-1853
▁measured	-1854
▁electroly	-1855
▁inorganic	-1856
▁embrittlement	-1857
In	-1858
ND	-1859
iO	-1860
ENT	-1861
UBR	-1862
ges	-1863
ral	-1864
yst	-1865
▁gl	-1866
arch	-1867
ploy	-1868
tage	-1869
ydra	-1870
▁dem	-1871
▁ppm	-1872
▁pur	-1873
UBRIC	-1874
itial	-1875
itude	-1876
▁Hard	-1877
▁harm	-1878
▁make	-1879
▁path	-1880
▁reas	-1881
▁test	-1882
infect	-1883
uction	-1884
▁along	-1885
▁being	-1886
▁chrom	-1887
▁count	-1888
▁miner	-1889
▁would	-1890
ildlife	-1891
stitute	-1892
▁LUBRIC	-1893
▁employ	-1894
▁factor	-1895
▁mostly	-1896
▁reduce	-1897
▁Calcium	-1898
▁provide	-1899
▁radical	-1900
▁require	-1901
▁Electron	-1902
▁Institute	-1903
▁Temporary	-1904
▁generation	-1905
▁management	-1906
▁Biodiversity	-1907
15	-1908
Mg	-1909
ld	-1910
ext	-1911
ian	-1912
mal	-1913
pir	-1914
uri	-1915
▁fe	-1916
ples	-1917
ults	-1918
unic	-1919
▁HCV	-1920
▁hot	-1921
▁suc	-1922
ining	-1923
▁Acid	-1924
▁allo	-1925
▁soft	-1926
andard	-1927
irable	-1928
ivided	-1929
▁Lapse	-1930
▁Trans	-1931
▁audit	-1932
▁Resins	-1933
▁charge	-1934
▁consid	-1935
▁grease	-1936
▁groups	-1937
▁diluted	-1938
▁results	-1939
▁zeolite	-1940
▁disposal	-1941
▁drinking	-1942
▁calculated	-1943
▁undesirable	-1944
2(	-1945
EL	-1946
Fe	-1947
TS	-1948
oh	-1949
ou	-1950
ti	-1951
---	-1952
con	-1953
iox	-1954
rit	-1955
▁CH	-1956
▁Un	-1957
▁eq	-1958
anes	-1959
eous	-1960
ircu	-1961
izes	-1962
resh	-1963
▁But	-1964
▁Dec	-1965
▁ESP	-1966
▁Par	-1967
▁att	-1968
▁num	-1969
▁pip	-1970
▁por	-1971
▁she	-1972
▁sto	-1973
▁too	-1974
agram	-1975
imate	-1976
verse	-1977
vices	-1978
▁Then	-1979
▁data	-1980
▁exch	-1981
▁mult	-1982
▁pers	-1983
▁same	-1984
▁areas	-1985
▁break	-1986
▁noise	-1987
▁regul	-1988
▁steel	-1989
▁Forest	-1990
▁Sludge	-1991
▁excess	-1992
▁levels	-1993
▁reacts	-1994
▁Content	-1995
▁aquifer	-1996
▁cycling	-1997
▁diagram	-1998
▁ecology	-1999
▁without	-2000
▁Analysis	-2001
▁Hydrogen	-2002
▁bacteria	-2003
▁involves	-2004
▁produces	-2005
▁zeolites	-2006
▁Calculate	-2007
▁equipment	-2008
▁increased	-2009
▁nutrients	-2010
▁phosphate	-2011
▁producing	-2012
▁protective	-2013
▁precipitate	-2014
oC	-2015
000	-2016
ula	-2017
▁25	-2018
▁60	-2019
▁OH	-2020
acks	-2021
ense	-2022
ince	-2023
ised	-2024
ited	-2025
ogen	-2026
pect	-2027
sequ	-2028
vers	-2029
▁imm	-2030
ather	-2031
ended	-2032
rogen	-2033
▁Time	-2034
▁help	-2035
anical	-2036
ficult	-2037
nected	-2038
urface	-2039
▁Chain	-2040
▁Chlor	-2041
▁acids	-2042
▁categ	-2043
▁decay	-2044
▁impur	-2045
▁maxim	-2046
▁rocks	-2047
▁stick	-2048
atively	-2049
▁bottom	-2050
▁cetane	-2051
▁little	-2052
pressure	-2053
▁Ecology	-2054
▁emulsif	-2055
▁passing	-2056
▁primary	-2057
▁recover	-2058
▁uniform	-2059
organisms	-2060
▁galvanic	-2061
▁problems	-2062
▁surround	-2063
▁difficult	-2064
▁dispersed	-2065
▁collection	-2066
▁continuous	-2067
▁impurities	-2068
▁increasing	-2069
▁incinerator	-2070
▁distillation	-2071
4-	-2072
NH	-2073
ne	-2074
▁%	-2075
RRO	-2076
eth	-2077
iab	-2078
mtr	-2079
oda	-2080
ATER	-2081
aper	-2082
apid	-2083
enes	-2084
eter	-2085
lamm	-2086
ross	-2087
▁All	-2088
▁Nit	-2089
▁PAN	-2090
▁bro	-2091
▁inf	-2092
▁tow	-2093
ormal	-2094
other	-2095
udden	-2096
ustic	-2097
▁Rate	-2098
▁Some	-2099
▁Spec	-2100
▁drop	-2101
▁kcal	-2102
▁seal	-2103
fining	-2104
ording	-2105
▁CORRO	-2106
▁Hence	-2107
▁charg	-2108
▁cryst	-2109
▁light	-2110
▁study	-2111
iabatic	-2112
▁Cetane	-2113
▁Pollut	-2114
▁Scales	-2115
▁alloys	-2116
▁alumin	-2117
▁chains	-2118
▁either	-2119
▁layers	-2120
▁microb	-2121
agulants	-2122
jectives	-2123
▁Sources	-2124
▁becomes	-2125
▁complex	-2126
▁general	-2127
▁smaller	-2128
▁thereby	-2129
▁towards	-2130
▁voltage	-2131
gradation	-2132
opulation	-2133
▁Landfill	-2134
▁capacity	-2135
▁employed	-2136
▁provides	-2137
▁quantity	-2138
▁subjects	-2139
▁CORROSION	-2140
▁Dissolved	-2141
▁Phosphate	-2142
▁anaerobic	-2143
▁including	-2144
▁molecules	-2145
▁permanent	-2146
▁temporary	-2147
▁Alkalinity	-2148
▁represents	-2149
▁Atmospheric	-2150
▁information	-2151
▁precipitation	-2152
80	-2153
AC	-2154
ci	-2155
dt	-2156
▁.	-2157
equ	-2158
omb	-2159
xic	-2160
▁15	-2161
▁80	-2162
▁el	-2163
enol	-2164
oler	-2165
otal	-2166
plos	-2167
▁exc	-2168
▁vap	-2169
ufact	-2170
▁body	-2171
▁diff	-2172
▁does	-2173
▁even	-2174
alytic	-2175
esides	-2176
itting	-2177
pended	-2178
▁flows	-2179
▁grain	-2180
▁plate	-2181
▁toler	-2182
ividual	-2183
▁Octane	-2184
▁alkane	-2185
▁evapor	-2186
▁stored	-2187
chemical	-2188
▁Reactor	-2189
▁Surface	-2190
▁Thermal	-2191
▁exhaust	-2192
▁extract	-2193
▁success	-2194
▁undergo	-2195
▁Exchange	-2196
▁condense	-2197
▁oiliness	-2198
▁sulfuric	-2199
▁treating	-2200
▁velocity	-2201
▁affecting	-2202
▁efficient	-2203
▁generated	-2204
▁operating	-2205
▁recycling	-2206
▁secondary	-2207
▁tolerance	-2208
▁processing	-2209
▁application	-2210
▁destruction	-2211
▁Concentration	-2212
)3	-2213
.0	-2214
16	-2215
75	-2216
Al	-2217
CL	-2218
En	-2219
gs	-2220
kg	-2221
▁x	-2222
HCl	-2223
fit	-2224
ute	-2225
▁=>	-2226
▁II	-2227
▁PH	-2228
▁Su	-2229
▁Zn	-2230
▁pH	-2231
▁pe	-2232
ixed	-2233
omer	-2234
pact	-2235
▁0.0	-2236
▁AND	-2237
▁Add	-2238
▁NPP	-2239
▁RCO	-2240
▁Red	-2241
▁Ste	-2242
▁gly	-2243
▁saf	-2244
▁wax	-2245
estic	-2246
overn	-2247
vents	-2248
▁1000	-2249
▁CaSO	-2250
▁Coal	-2251
▁Heat	-2252
▁PbSO	-2253
▁Prim	-2254
▁been	-2255
▁best	-2256
▁fast	-2257
▁rele	-2258
▁sign	-2259
▁thus	-2260
▁wind	-2261
ferred	-2262
ircuit	-2263
ivated	-2264
▁Minim	-2265
▁cells	-2266
▁liber	-2267
▁liter	-2268
▁organ	-2269
▁soaps	-2270
▁steps	-2271
essment	-2272
logical	-2273
▁Impact	-2274
▁biotic	-2275
▁growth	-2276
▁heated	-2277
▁mainly	-2278
▁medium	-2279
▁mixing	-2280
▁scales	-2281
▁Aquatic	-2282
▁Density	-2283
▁Inciner	-2284
▁Removal	-2285
▁Storage	-2286
▁changes	-2287
▁Industry	-2288
▁Physical	-2289
▁contents	-2290
▁expressed	-2291
▁structure	-2292
▁typically	-2293
▁Electrical	-2294
▁Electronic	-2295
▁Prevention	-2296
▁conductivity	-2297
▁characteristics	-2298
60	-2299
:1	-2300
▁'	-2301
ior	-2302
▁+2	-2303
▁Gr	-2304
▁es	-2305
▁ke	-2306
imal	-2307
ream	-2308
reme	-2309
wage	-2310
▁ens	-2311
▁int	-2312
▁lit	-2313
▁opt	-2314
▁ret	-2315
▁smo	-2316
avity	-2317
etric	-2318
oints	-2319
reens	-2320
▁MgCO	-2321
▁land	-2322
▁larg	-2323
▁made	-2324
▁mech	-2325
▁plas	-2326
▁Anode	-2327
▁Prote	-2328
▁enter	-2329
▁field	-2330
▁ratio	-2331
reasing	-2332
tenance	-2333
▁Volume	-2334
▁extent	-2335
▁hazard	-2336
▁needed	-2337
otrophic	-2338
▁categor	-2339
▁disulph	-2340
▁maximum	-2341
▁screens	-2342
▁storage	-2343
▁cracking	-2344
▁deposits	-2345
▁directly	-2346
▁graphite	-2347
▁industry	-2348
▁settling	-2349
▁Transport	-2350
▁determine	-2351
▁distilled	-2352
▁synthetic	-2353
▁mechanical	-2354
▁decomposition	-2355
▁sedimentation	-2356
)-	-2357
.5	-2358
.9	-2359
35	-2360
4.	-2361
Lt	-2362
SS	-2363
TB	-2364
ask	-2365
elf	-2366
iln	-2367
iod	-2368
let	-2369
stu	-2370
ton	-2371
ulk	-2372
war	-2373
▁LP	-2374
▁Me	-2375
▁bl	-2376
▁id	-2377
ANTS	-2378
ehic	-2379
etic	-2380
fall	-2381
ires	-2382
ough	-2383
ulic	-2384
ural	-2385
ylin	-2386
▁(19	-2387
▁Use	-2388
▁exp	-2389
▁fin	-2390
▁lab	-2391
amber	-2392
artic	-2393
eases	-2394
ehold	-2395
endly	-2396
fully	-2397
istry	-2398
ossil	-2399
point	-2400
▁Cost	-2401
▁Main	-2402
▁Soil	-2403
▁blow	-2404
▁deox	-2405
▁fill	-2406
▁shor	-2407
▁stat	-2408
▁task	-2409
actors	-2410
anding	-2411
erated	-2412
ludges	-2413
ocking	-2414
onomic	-2415
paring	-2416
proach	-2417
ustain	-2418
▁comes	-2419
▁cylin	-2420
▁ident	-2421
▁indic	-2422
▁rapid	-2423
▁rules	-2424
acrific	-2425
riendly	-2426
▁acidic	-2427
▁inject	-2428
▁stress	-2429
▁sudden	-2430
lammable	-2431
ousehold	-2432
ydraulic	-2433
▁Aerobic	-2434
▁Besides	-2435
▁Pyramid	-2436
▁Sulphur	-2437
▁chamber	-2438
▁convert	-2439
▁devices	-2440
▁divided	-2441
▁effects	-2442
▁example	-2443
▁reduced	-2444
▁respons	-2445
▁sources	-2446
infection	-2447
ygenation	-2448
▁--------	-2449
▁branched	-2450
▁chromium	-2451
▁criteria	-2452
▁cylinder	-2453
▁discharg	-2454
▁reducing	-2455
▁refining	-2456
▁Calorific	-2457
▁emulsions	-2458
▁insoluble	-2459
▁turbidity	-2460
▁LUBRICANTS	-2461
▁Lubricants	-2462
▁Population	-2463
▁coagulants	-2464
▁monitoring	-2465
▁technology	-2466
▁combustible	-2467
▁conditioning	-2468
▁relationship	-2469
▁deoxygenation	-2470
FC	-2471
mm	-2472
3.3	-2473
erc	-2474
mer	-2475
way	-2476
▁1?	-2477
▁5)	-2478
▁TO	-2479
ased	-2480
ious	-2481
▁Aut	-2482
▁app	-2483
▁cop	-2484
▁eth	-2485
▁pop	-2486
adily	-2487
atory	-2488
orous	-2489
poses	-2490
▁Kcal	-2491
▁Plas	-2492
▁Prin	-2493
▁fire	-2494
▁four	-2495
▁open	-2496
amples	-2497
ension	-2498
ograph	-2499
▁curve	-2500
▁litre	-2501
▁river	-2502
▁taken	-2503
▁therm	-2504
▁toxic	-2505
▁become	-2506
▁before	-2507
▁compar	-2508
▁settle	-2509
▁sewage	-2510
▁taking	-2511
piration	-2512
ribution	-2513
▁cooling	-2514
▁exposed	-2515
▁formula	-2516
▁sulphur	-2517
overnment	-2518
▁Moisture	-2519
▁manufact	-2520
▁obtained	-2521
▁oxidized	-2522
▁softened	-2523
▁Character	-2524
▁Equipment	-2525
▁Magnesium	-2526
▁Screening	-2527
▁basically	-2528
▁connected	-2529
▁magnesium	-2530
▁suspended	-2531
▁Production	-2532
▁Protection	-2533
▁population	-2534
▁bicarbonates	-2535
▁precipitates	-2536
▁biogeochemical	-2537
%)	-2538
3(	-2539
3/	-2540
4%	-2541
AG	-2542
ID	-2543
OI	-2544
Pb	-2545
TA	-2546
Vs	-2547
tt	-2548
vt	-2549
ALR	-2550
COO	-2551
anj	-2552
ont	-2553
oth	-2554
rel	-2555
uct	-2556
▁30	-2557
▁95	-2558
▁FC	-2559
▁Fr	-2560
▁NH	-2561
▁OF	-2562
▁SC	-2563
▁UN	-2564
▁We	-2565
▁ra	-2566
Kcal	-2567
NaCl	-2568
asic	-2569
atis	-2570
ceed	-2571
ning	-2572
ried	-2573
unts	-2574
▁250	-2575
▁DRE	-2576
▁Env	-2577
▁GPP	-2578
▁Haw	-2579
▁TON	-2580
▁ant	-2581
▁ash	-2582
▁bed	-2583
▁fac	-2584
▁fas	-2585
▁ris	-2586
▁rot	-2587
▁top	-2588
▁vir	-2589
arily	-2590
ening	-2591
ision	-2592
utral	-2593
▁Anti	-2594
▁Lead	-2595
▁More	-2596
▁Phot	-2597
▁Soda	-2598
▁Zeol	-2599
▁cold	-2600
▁diox	-2601
▁glob	-2602
▁gold	-2603
▁mill	-2604
▁poor	-2605
▁sand	-2606
▁text	-2607
▁weak	-2608
anning	-2609
austic	-2610
ustion	-2611
▁Basic	-2612
▁Inter	-2613
▁green	-2614
▁knock	-2615
▁needs	-2616
▁odour	-2617
▁satis	-2618
▁vehic	-2619
▁volat	-2620
ainless	-2621
lection	-2622
oundary	-2623
▁Effect	-2624
▁Health	-2625
▁Proper	-2626
▁better	-2627
▁cation	-2628
▁create	-2629
▁faster	-2630
▁glycol	-2631
▁leaves	-2632
▁peroxy	-2633
▁reason	-2634
▁resins	-2635
▁stable	-2636
▁varies	-2637
▁Cathode	-2638
▁Caustic	-2639
▁Factors	-2640
▁Priming	-2641
▁Special	-2642
▁Zeolite	-2643
▁balance	-2644
▁caustic	-2645
▁circuit	-2646
▁gravity	-2647
▁harmful	-2648
▁liquids	-2649
▁machine	-2650
▁methods	-2651
▁numbers	-2652
▁project	-2653
▁similar	-2654
▁started	-2655
▁treated	-2656
stituents	-2657
▁Disposal	-2658
▁Recharge	-2659
▁crystall	-2660
▁followed	-2661
▁interact	-2662
▁minerals	-2663
▁transfer	-2664
ustainable	-2665
▁Reduction	-2666
▁carbonate	-2667
▁effective	-2668
▁Ecological	-2669
▁Technology	-2670
▁considered	-2671
▁disulphide	-2672
▁Lubrication	-2673
▁combination	-2674
▁consumption	-2675
Environmental	-2676
▁constituents	-2677
25	-2678
RH	-2679
oo	-2680
sh	-2681
BOD	-2682
SiO	-2683
oci	-2684
▁2-	-2685
▁4.	-2686
▁55	-2687
▁70	-2688
▁Pt	-2689
▁UV	-2690
fied	-2691
lear	-2692
odes	-2693
ower	-2694
very	-2695
ying	-2696
▁Ion	-2697
▁che	-2698
▁ess	-2699
▁mtr	-2700
brane	-2701
ource	-2702
▁Uses	-2703
▁easy	-2704
▁fail	-2705
▁fine	-2706
▁list	-2707
▁orig	-2708
▁rest	-2709
▁thin	-2710
▁word	-2711
achate	-2712
uclear	-2713
▁crude	-2714
▁final	-2715
▁fract	-2716
▁loads	-2717
▁satur	-2718
▁absorb	-2719
▁copper	-2720
▁danger	-2721
▁inside	-2722
ivalents	-2723
▁bearing	-2724
▁leading	-2725
▁rubbing	-2726
▁special	-2727
▁consumer	-2728
▁terminal	-2729
▁depending	-2730
▁direction	-2731
▁essential	-2732
▁fractions	-2733
▁resistant	-2734
▁absorption	-2735
▁categories	-2736
▁consisting	-2737
▁decreasing	-2738
▁functional	-2739
▁bicarbonate	-2740
▁electrolyte	-2741
▁maintenance	-2742
-7	-2743
.)	-2744
2=	-2745
87	-2746
CR	-2747
Vw	-2748
ft	-2749
gm	-2750
nm	-2751
▁;	-2752
=2-	-2753
AST	-2754
EEE	-2755
coh	-2756
ets	-2757
gon	-2758
han	-2759
ism	-2760
rip	-2761
▁=3	-2762
▁Ap	-2763
▁Bl	-2764
▁Ev	-2765
▁Sn	-2766
▁nm	-2767
ASTE	-2768
NaOH	-2769
alue	-2770
ceiv	-2771
emic	-2772
ison	-2773
itic	-2774
nder	-2775
rain	-2776
rene	-2777
uild	-2778
unal	-2779
▁10%	-2780
▁COD	-2781
▁HCl	-2782
▁LCV	-2783
▁Per	-2784
▁Reg	-2785
▁Wor	-2786
▁clo	-2787
▁raw	-2788
▁way	-2789
ators	-2790
auses	-2791
bient	-2792
cohol	-2793
ights	-2794
illed	-2795
iotic	-2796
iston	-2797
omass	-2798
quare	-2799
urbul	-2800
▁0.45	-2801
▁2000	-2802
▁Each	-2803
▁Emul	-2804
▁Oxid	-2805
▁phot	-2806
▁radi	-2807
▁role	-2808
▁safe	-2809
▁side	-2810
▁site	-2811
▁stra	-2812
▁uses	-2813
anging	-2814
anular	-2815
enefit	-2816
forest	-2817
reater	-2818
urnace	-2819
utions	-2820
vement	-2821
▁Level	-2822
▁Point	-2823
▁Sound	-2824
▁State	-2825
▁Under	-2826
▁Value	-2827
▁WATER	-2828
▁atoms	-2829
▁burns	-2830
▁frequ	-2831
▁pipes	-2832
▁silic	-2833
▁state	-2834
article	-2835
ference	-2836
ierarch	-2837
issible	-2838
ribunal	-2839
ventory	-2840
▁Causes	-2841
▁Common	-2842
▁Design	-2843
▁Ground	-2844
▁Marine	-2845
▁Second	-2846
▁alkali	-2847
▁demand	-2848
▁period	-2849
▁phenol	-2850
▁phones	-2851
▁status	-2852
▁Develop	-2853
▁Electro	-2854
▁Silicon	-2855
▁alkanes	-2856
▁amounts	-2857
▁applied	-2858
▁biomass	-2859
▁carried	-2860
▁initial	-2861
▁members	-2862
▁reactor	-2863
▁sludges	-2864
▁soluble	-2865
▁working	-2866
urbulence	-2867
▁Galvanic	-2868
▁Graphite	-2869
▁Precipit	-2870
▁Standard	-2871
▁compound	-2872
▁constant	-2873
▁pathogen	-2874
▁prevents	-2875
▁sacrific	-2876
▁straight	-2877
▁Anaerobic	-2878
▁Inorganic	-2879
▁Inventory	-2880
▁Resources	-2881
▁Secondary	-2882
▁according	-2883
▁collected	-2884
▁component	-2885
▁countries	-2886
▁electrode	-2887
▁exchanger	-2888
▁occurring	-2889
▁radiation	-2890
▁remaining	-2891
▁Biological	-2892
▁converting	-2893
▁filtration	-2894
▁Development	-2895
▁Lubricating	-2896
▁atmospheric	-2897
▁degradation	-2898
▁evaporation	-2899
▁Incineration	-2900
▁construction	-2901
▁particularly	-2902
▁requirements	-2903
▁fractionating	-2904
4+	-2905
sc	-2906
des	-2907
gly	-2908
ice	-2909
sis	-2910
hing	-2911
▁Lat	-2912
▁abs	-2913
▁how	-2914
imals	-2915
ritus	-2916
ulate	-2917
▁arom	-2918
▁elim	-2919
▁foam	-2920
ellent	-2921
ganism	-2922
utroph	-2923
▁Human	-2924
▁basic	-2925
▁basis	-2926
▁deter	-2927
▁techn	-2928
product	-2929
▁Latent	-2930
▁Normal	-2931
▁anodes	-2932
▁commun	-2933
▁degree	-2934
▁easier	-2935
▁explos	-2936
▁having	-2937
▁larger	-2938
▁length	-2939
▁porous	-2940
▁region	-2941
charging	-2942
ervation	-2943
pression	-2944
▁burning	-2945
▁charged	-2946
▁condens	-2947
▁foaming	-2948
▁heating	-2949
▁minimum	-2950
▁purpose	-2951
▁readily	-2952
▁thermal	-2953
▁aromatic	-2954
▁compared	-2955
▁organism	-2956
▁separate	-2957
▁excellent	-2958
▁represent	-2959
▁thickness	-2960
▁difference	-2961
▁emulsifier	-2962
▁preparation	-2963
utrophication	-2964
▁contamination	-2965
▁Transportation	-2966
)(	-2967
3+	-2968
NC	-2969
Th	-2970
eo	-2971
ik	-2972
og	-2973
▁/	-2974
AGA	-2975
DTA	-2976
EIA	-2977
ING	-2978
Pre	-2979
ale	-2980
ana	-2981
but	-2982
emi	-2983
ern	-2984
ita	-2985
ope	-2986
ray	-2987
ump	-2988
▁5%	-2989
▁Ab	-2990
▁Am	-2991
▁Do	-2992
▁Ob	-2993
▁SP	-2994
▁ce	-2995
▁ed	-2996
▁er	-2997
▁vs	-2998
MENT	-2999
aced	-3000
avel	-3001
bden	-3002
cern	-3003
iary	-3004
mium	-3005
ouse	-3006
site	-3007
stit	-3008
valu	-3009
▁0.2	-3010
▁0.5	-3011
▁Amo	-3012
▁Cap	-3013
▁Cat	-3014
▁Col	-3015
▁Cre	-3016
▁Dem	-3017
▁Due	-3018
▁Eff	-3019
▁Fer	-3020
▁Low	-3021
▁Out	-3022
▁Sub	-3023
▁Vis	-3024
▁adj	-3025
▁dur	-3026
▁key	-3027
▁mot	-3028
▁oce	-3029
▁off	-3030
▁str	-3031
anjan	-3032
ately	-3033
ience	-3034
irect	-3035
owder	-3036
phere	-3037
tical	-3038
▁1982	-3039
▁AgNO	-3040
▁Cond	-3041
▁Cons	-3042
▁Dash	-3043
▁EDTA	-3044
▁Flow	-3045
▁Hawf	-3046
▁Size	-3047
▁carb	-3048
▁care	-3049
▁cast	-3050
▁disc	-3051
▁dust	-3052
▁head	-3053
▁port	-3054
▁situ	-3055
▁tank	-3056
active	-3057
bdenum	-3058
ensive	-3059
ercial	-3060
imilar	-3061
jected	-3062
unicip	-3063
▁After	-3064
▁Fresh	-3065
▁Gases	-3066
▁Large	-3067
▁Metal	-3068
▁Monit	-3069
▁Reuse	-3070
▁Scale	-3071
▁Since	-3072
▁inner	-3073
▁moves	-3074
▁raise	-3075
▁reach	-3076
▁sever	-3077
▁sites	-3078
▁sizes	-3079
▁table	-3080
▁terms	-3081
▁trays	-3082
▁usual	-3083
▁world	-3084
centage	-3085
ffinity	-3086
omestic	-3087
pletion	-3088
ributed	-3089
▁Degree	-3090
▁Direct	-3091
▁Struct	-3092
▁dissol	-3093
▁enough	-3094
▁forest	-3095
▁freely	-3096
▁lather	-3097
▁phosph	-3098
▁refers	-3099
▁review	-3100
▁runoff	-3101
ceptible	-3102
granular	-3103
▁Foaming	-3104
▁Pitting	-3105
▁ability	-3106
▁capable	-3107
▁concern	-3108
▁dioxide	-3109
▁disturb	-3110
▁emitted	-3111
▁furnace	-3112
▁gradual	-3113
▁hydroph	-3114
▁overall	-3115
▁perform	-3116
▁plastic	-3117
▁problem	-3118
▁running	-3119
olybdenum	-3120
▁Capacity	-3121
▁approach	-3122
▁commonly	-3123
▁filtered	-3124
▁friendly	-3125
▁hierarch	-3126
▁particle	-3127
▁producer	-3128
▁recovery	-3129
▁relative	-3130
▁requires	-3131
▁signific	-3132
▁strength	-3133
▁vehicles	-3134
Prevention	-3135
osynthesis	-3136
▁Synthesis	-3137
▁Turbidity	-3138
▁Viscosity	-3139
▁community	-3140
▁preparing	-3141
▁reduction	-3142
▁transport	-3143
▁Efficiency	-3144
▁Filtration	-3145
▁alkalinity	-3146
▁determines	-3147
▁frictional	-3148
▁industrial	-3149
▁objectives	-3150
▁percentage	-3151
▁separation	-3152
▁sufficient	-3153
▁Composition	-3154
▁Preparation	-3155
▁electricity	-3156
▁responsible	-3157
▁susceptible	-3158
▁continuously	-3159
▁hydrological	-3160
▁organization	-3161
▁respectively	-3162
▁Biogeochemical	-3163
14	-3164
RY	-3165
km	-3166
ml	-3167
001	-3168
ano	-3169
ars	-3170
els	-3171
hyd	-3172
iqu	-3173
oir	-3174
yto	-3175
▁=4	-3176
▁Av	-3177
▁CE	-3178
▁Ct	-3179
▁IC	-3180
▁Ro	-3181
▁→2	-3182
acid	-3183
alls	-3184
anol	-3185
apes	-3186
atty	-3187
ened	-3188
imum	-3189
inut	-3190
made	-3191
read	-3192
sues	-3193
▁CaZ	-3194
▁Mes	-3195
▁ROH	-3196
▁del	-3197
▁dia	-3198
▁fav	-3199
▁tin	-3200
anted	-3201
ising	-3202
odium	-3203
ublic	-3204
▁cult	-3205
▁item	-3206
▁laws	-3207
▁rock	-3208
▁tool	-3209
▁wear	-3210
ervoir	-3211
▁Plasm	-3212
▁broad	-3213
▁ether	-3214
▁every	-3215
▁fatty	-3216
▁treat	-3217
▁whole	-3218
duction	-3219
itional	-3220
ociated	-3221
ometric	-3222
stances	-3223
▁actual	-3224
▁around	-3225
▁comput	-3226
▁issues	-3227
▁joints	-3228
▁rubber	-3229
▁spread	-3230
▁transm	-3231
▁vapour	-3232
culation	-3233
volution	-3234
▁absence	-3235
▁animals	-3236
▁avoided	-3237
▁coating	-3238
▁complet	-3239
▁density	-3240
▁hazards	-3241
▁optimum	-3242
▁potable	-3243
▁reverse	-3244
agulation	-3245
▁consumed	-3246
▁membrane	-3247
▁nitrogen	-3248
sification	-3249
▁Community	-3250
▁adiabatic	-3251
▁dangerous	-3252
▁landfills	-3253
▁sulphates	-3254
▁Artificial	-3255
▁Assessment	-3256
▁associated	-3257
▁determined	-3258
▁dispersion	-3259
▁individual	-3260
▁equivalents	-3261
▁functioning	-3262
▁conservation	-3263
-)	-3264
17	-3265
2?	-3266
30	-3267
6%	-3268
78	-3269
AS	-3270
CB	-3271
EF	-3272
HG	-3273
NN	-3274
OG	-3275
Va	-3276
aq	-3277
be	-3278
nO	-3279
ug	-3280
uk	-3281
”.	-3282
00-	-3283
2%,	-3284
4):	-3285
ARD	-3286
LID	-3287
TBT	-3288
anc	-3289
ats	-3290
aun	-3291
ave	-3292
cid	-3293
due	-3294
ecl	-3295
ety	-3296
ged	-3297
inc	-3298
ipl	-3299
lab	-3300
meq	-3301
ovt	-3302
put	-3303
rea	-3304
reg	-3305
toc	-3306
unl	-3307
zed	-3308
▁2?	-3309
▁40	-3310
▁5.	-3311
▁6)	-3312
▁99	-3313
▁EN	-3314
▁EX	-3315
▁Hu	-3316
▁IN	-3317
▁LA	-3318
▁LC	-3319
▁ST	-3320
▁Ti	-3321
▁dB	-3322
▁gu	-3323
▁ir	-3324
▁km	-3325
Soda	-3326
acyl	-3327
anks	-3328
comb	-3329
ears	-3330
file	-3331
ften	-3332
iers	-3333
iles	-3334
iver	-3335
onod	-3336
orus	-3337
pond	-3338
rams	-3339
rass	-3340
rect	-3341
soda	-3342
such	-3343
ward	-3344
zing	-3345
▁106	-3346
▁Bed	-3347
▁CNG	-3348
▁GHG	-3349
▁Gen	-3350
▁Hot	-3351
▁LPG	-3352
▁Mem	-3353
▁Run	-3354
▁Sus	-3355
▁Syn	-3356
▁alt	-3357
▁bio	-3358
▁eco	-3359
▁egs	-3360
▁env	-3361
▁fer	-3362
▁few	-3363
▁flu	-3364
▁log	-3365
▁new	-3366
▁put	-3367
▁web	-3368
▁wid	-3369
ATION	-3370
Total	-3371
acted	-3372
aking	-3373
anche	-3374
arded	-3375
asons	-3376
chain	-3377
ching	-3378
elves	-3379
ences	-3380
eness	-3381
ickel	-3382
ingle	-3383
ional	-3384
izing	-3385
oidal	-3386
onomy	-3387
rated	-3388
tocol	-3389
▁Area	-3390
▁Boil	-3391
▁Cold	-3392
▁Comb	-3393
▁Data	-3394
▁Estu	-3395
▁Land	-3396
▁Lecl	-3397
▁Mill	-3398
▁Over	-3399
▁Poly	-3400
▁Rese	-3401
▁Sedi	-3402
▁Such	-3403
▁Wast	-3404
▁acqu	-3405
▁auto	-3406
▁come	-3407
▁kiln	-3408
▁lith	-3409
▁pred	-3410
▁prop	-3411
▁rail	-3412
▁repl	-3413
▁rise	-3414
▁rule	-3415
▁semi	-3416
▁virt	-3417
▁wide	-3418
admium	-3419
ameter	-3420
ceived	-3421
ctions	-3422
igrams	-3423
killed	-3424
onents	-3425
static	-3426
ticles	-3427
vanced	-3428
▁Agree	-3429
▁Anion	-3430
▁Audit	-3431
▁Crude	-3432
▁Monod	-3433
▁Nutri	-3434
▁Odour	-3435
▁Ratio	-3436
▁Rules	-3437
▁Speed	-3438
▁WASTE	-3439
▁cloud	-3440
▁cover	-3441
▁goods	-3442
▁labor	-3443
▁plane	-3444
▁plays	-3445
▁radio	-3446
▁simpl	-3447
▁spark	-3448
▁tanks	-3449
▁units	-3450
▁whose	-3451
Benefit	-3452
pendent	-3453
porting	-3454
resence	-3455
respond	-3456
taining	-3457
unlight	-3458
▁Amount	-3459
▁Calgon	-3460
▁Excess	-3461
▁Grease	-3462
▁Indian	-3463
▁Method	-3464
▁Option	-3465
▁Phosph	-3466
▁Proble	-3467
▁Soften	-3468
▁Sounds	-3469
▁System	-3470
▁action	-3471
▁altern	-3472
▁castor	-3473
▁coated	-3474
▁detect	-3475
▁ensure	-3476
▁exists	-3477
▁fossil	-3478
▁global	-3479
▁ignite	-3480
▁infect	-3481
▁losses	-3482
▁manner	-3483
▁outlet	-3484
▁passes	-3485
▁piston	-3486
▁select	-3487
▁series	-3488
▁square	-3489
▁values	-3490
aterials	-3491
hemistry	-3492
olloidal	-3493
wareness	-3494
▁Another	-3495
▁Conduct	-3496
▁Genetic	-3497
▁Heating	-3498
▁Initial	-3499
▁Princip	-3500
▁Reasons	-3501
▁Recycle	-3502
▁Science	-3503
▁ambient	-3504
▁aqueous	-3505
▁attract	-3506
▁capping	-3507
▁creates	-3508
▁fulfill	-3509
▁greater	-3510
▁growing	-3511
▁outside	-3512
▁persist	-3513
▁portion	-3514
▁pyramid	-3515
▁release	-3516
▁service	-3517
▁shorter	-3518
▁Cathodic	-3519
▁Emission	-3520
▁National	-3521
▁Nitrogen	-3522
▁Nutrient	-3523
▁Producer	-3524
▁Protocol	-3525
▁Research	-3526
▁Tribunal	-3527
▁Wildlife	-3528
▁altitude	-3529
▁articles	-3530
▁changing	-3531
▁cleaning	-3532
▁designed	-3533
▁downward	-3534
▁emission	-3535
▁included	-3536
▁machines	-3537
▁projects	-3538
▁radicals	-3539
▁rainfall	-3540
▁received	-3541
▁tendency	-3542
▁wildlife	-3543
rification	-3544
tificially	-3545
▁Activated	-3546
▁Agreement	-3547
▁Carbonate	-3548
▁Catalytic	-3549
▁Estuarine	-3550
▁Leclanche	-3551
▁Materials	-3552
▁Oxidation	-3553
▁Pollutant	-3554
▁Selection	-3555
▁Synthetic	-3556
▁calculate	-3557
▁compacted	-3558
▁discarded	-3559
▁household	-3560
▁injection	-3561
▁liberated	-3562
▁regulates	-3563
▁separated	-3564
▁subjected	-3565
▁variation	-3566
omerization	-3567
▁Components	-3568
▁Industrial	-3569
▁Pollutants	-3570
▁Wastewater	-3571
▁commercial	-3572
▁correspond	-3573
▁discharged	-3574
▁industries	-3575
▁maintained	-3576
▁saturation	-3577
▁Environment	-3578
▁crystalline	-3579
▁determining	-3580
▁permissible	-3581
▁sacrificial	-3582
▁sustainable	-3583
▁artificially	-3584
▁contaminants	-3585
▁characteristic	-3586
/(	-3587
2→	-3588
HS	-3589
-20	-3590
Lit	-3591
alk	-3592
esh	-3593
ght	-3594
isc	-3595
ken	-3596
mly	-3597
ped	-3598
rub	-3599
umm	-3600
une	-3601
ven	-3602
xle	-3603
▁&?	-3604
▁Hy	-3605
▁Kn	-3606
▁SM	-3607
▁od	-3608
ably	-3609
arse	-3610
arts	-3611
atin	-3612
auss	-3613
enic	-3614
etyl	-3615
ices	-3616
ocks	-3617
pass	-3618
tons	-3619
umes	-3620
▁(1)	-3621
▁1.5	-3622
▁300	-3623
▁Nal	-3624
▁SiO	-3625
▁dep	-3626
▁dig	-3627
▁tal	-3628
▁unw	-3629
▁wet	-3630
oking	-3631
usion	-3632
▁Dist	-3633
▁Here	-3634
▁bulk	-3635
▁cent	-3636
▁garb	-3637
▁meth	-3638
▁once	-3639
▁shar	-3640
▁upon	-3641
annels	-3642
ganese	-3643
inated	-3644
ineral	-3645
istics	-3646
orless	-3647
resist	-3648
▁Gauss	-3649
▁Total	-3650
▁carry	-3651
▁equip	-3652
▁inten	-3653
▁polar	-3654
▁right	-3655
▁shear	-3656
▁since	-3657
▁stand	-3658
iscible	-3659
▁Cation	-3660
▁Source	-3661
▁allows	-3662
▁broken	-3663
▁digest	-3664
▁ethers	-3665
▁firmly	-3666
▁impact	-3667
▁necess	-3668
▁overhe	-3669
▁public	-3670
▁respir	-3671
▁starts	-3672
▁stream	-3673
▁explain	-3674
▁failure	-3675
▁garbage	-3676
▁medical	-3677
▁nitrate	-3678
▁polymer	-3679
▁protons	-3680
▁sealing	-3681
▁washing	-3682
anagement	-3683
▁Gaussian	-3684
▁Sulphate	-3685
▁deterior	-3686
▁gradient	-3687
▁machiner	-3688
▁movement	-3689
▁oxidised	-3690
▁removing	-3691
▁standard	-3692
▁sulphate	-3693
▁supplies	-3694
▁techniqu	-3695
▁unwanted	-3696
▁Adiabatic	-3697
▁catalytic	-3698
▁developed	-3699
▁diffusion	-3700
▁Government	-3701
▁situations	-3702
▁Autotrophic	-3703
▁communities	-3704
▁represented	-3705
▁surrounding	-3706
▁disinfection	-3707
▁comparatively	-3708
▁Characteristics	-3709
);	-3710
)]	-3711
18	-3712
4)	-3713
IT	-3714
Pa	-3715
cm	-3716
hr	-3717
ux	-3718
’.	-3719
▁)	-3720
4)2	-3721
4)3	-3722
ELL	-3723
STR	-3724
air	-3725
ape	-3726
aum	-3727
com	-3728
dis	-3729
dle	-3730
ele	-3731
erb	-3732
gar	-3733
gis	-3734
icy	-3735
ini	-3736
ney	-3737
oos	-3738
pts	-3739
rem	-3740
▁(5	-3741
▁1(	-3742
▁12	-3743
▁16	-3744
▁45	-3745
▁75	-3746
▁8.	-3747
▁CR	-3748
▁Fl	-3749
▁Is	-3750
▁Of	-3751
▁ep	-3752
▁kg	-3753
▁mm	-3754
▁ow	-3755
▁ut	-3756
▁vi	-3757
/100	-3758
100/	-3759
CaCO	-3760
REAT	-3761
anit	-3762
cury	-3763
ench	-3764
eros	-3765
etal	-3766
free	-3767
gisl	-3768
imes	-3769
ital	-3770
kely	-3771
mers	-3772
oard	-3773
oles	-3774
ople	-3775
orph	-3776
pent	-3777
rope	-3778
uxil	-3779
▁(2)	-3780
▁(3)	-3781
▁0.6	-3782
▁111	-3783
▁197	-3784
▁199	-3785
▁500	-3786
▁7.9	-3787
▁74%	-3788
▁99%	-3789
▁ASP	-3790
▁And	-3791
▁Cyc	-3792
▁Dif	-3793
▁Ext	-3794
▁Flu	-3795
▁GIS	-3796
▁Gra	-3797
▁MgZ	-3798
▁NOX	-3799
▁Num	-3800
▁PAC	-3801
▁PBR	-3802
▁Pet	-3803
▁Rel	-3804
▁Rot	-3805
▁TOC	-3806
▁esc	-3807
▁fig	-3808
▁ill	-3809
▁lif	-3810
▁mic	-3811
▁osc	-3812
▁red	-3813
▁sor	-3814
▁sty	-3815
▁tit	-3816
▁tro	-3817
COONa	-3818
EMENT	-3819
arate	-3820
asant	-3821
asses	-3822
enced	-3823
engue	-3824
erate	-3825
iddle	-3826
inary	-3827
index	-3828
irred	-3829
oping	-3830
plets	-3831
ptane	-3832
uable	-3833
urban	-3834
urope	-3835
wable	-3836
▁10-3	-3837
▁CELL	-3838
▁Cent	-3839
▁Form	-3840
▁Grou	-3841
▁Item	-3842
▁Unit	-3843
▁Vari	-3844
▁WEEE	-3845
▁Wind	-3846
▁agit	-3847
▁bear	-3848
▁bond	-3849
▁educ	-3850
▁full	-3851
▁kill	-3852
▁kind	-3853
▁ligh	-3854
▁loos	-3855
▁name	-3856
▁pour	-3857
▁puri	-3858
▁rely	-3859
▁sens	-3860
▁turn	-3861
▁util	-3862
▁wire	-3863
Volume	-3864
attery	-3865
elines	-3866
ercury	-3867
iplied	-3868
proxim	-3869
ycling	-3870
▁Decom	-3871
▁Defin	-3872
▁Destr	-3873
▁Field	-3874
▁Heter	-3875
▁Keros	-3876
▁Press	-3877
▁Regen	-3878
▁Synec	-3879
▁TREAT	-3880
▁Taste	-3881
▁adequ	-3882
▁adsor	-3883
▁auxil	-3884
▁build	-3885
▁flame	-3886
▁fully	-3887
▁gears	-3888
▁glass	-3889
▁holes	-3890
▁incom	-3891
▁index	-3892
▁lapse	-3893
▁liner	-3894
▁outer	-3895
▁paper	-3896
▁pract	-3897
▁resid	-3898
▁solar	-3899
▁space	-3900
▁stron	-3901
▁super	-3902
▁taste	-3903
▁tends	-3904
▁thems	-3905
▁years	-3906
anitary	-3907
cedures	-3908
odegrad	-3909
▁	-3910
e	-3911
i	-3912
s	-3913
t	-3914
a	-3915
n	-3916
r	-3917
o	-3918
l	-3919
c	-3920
h	-3921
d	-3922
u	-3923
m	-3924
p	-3925
:	-3926
f	-3927
g	-3928
w	-3929
A	-3930
b	-3931
y	-3932
k	-3933
v	-3934
.	-3935
,	-3936
)	-3937
C	-3938
x	-3939
T	-3940
E	-3941
D	-3942
2	-3943
O	-3944
-	-3945
S	-3946
I	-3947
0	-3948
?	-3949
(	-3950
H	-3951
P	-3952
1	-3953
W	-3954
N	-3955
R	-3956
M	-3957
3	-3958
&	-3959
L	-3960
q	-3961
B	-3962
•	-3963
+	-3964
F	-3965
4	-3966
5	-3967
=	-3968
/	-3969
z	-3970
G	-3971
V	-3972
–	-3973
6	-3974
j	-3975
U	-3976
%	-3977
→	-3978
9	-3979
8	-3980
7	-3981
’	-3982
>	-3983
K	-3984
Z	-3985
;	-3986
'	-3987
X	-3988
Q	-3989
‘	-3990
“	-3991
”	-3992
Y	-3993
[	-3994
]	-3995
°	-3996
