<unk>	0
<s>	0
</s>	0
▁t	-0
er	-1
in	-2
▁a	-3
▁th	-4
▁A	-5
es	-6
▁o	-7
on	-8
is	-9
at	-10
re	-11
▁the	-12
en	-13
▁c	-14
▁p	-15
▁of	-16
▁s	-17
al	-18
an	-19
it	-20
ic	-21
▁in	-22
▁An	-23
wer	-24
ion	-25
▁As	-26
▁Ans	-27
▁Answer	-28
▁Ask	-29
ro	-30
▁f	-31
▁b	-32
or	-33
ed	-34
▁w	-35
▁d	-36
ing	-37
ar	-38
ct	-39
▁m	-40
▁an	-41
00	-42
▁T	-43
▁is	-44
▁D	-45
as	-46
ri	-47
pl	-48
ent	-49
▁e	-50
▁E	-51
▁to	-52
he	-53
ain	-54
▁this	-55
om	-56
rib	-57
▁and	-58
le	-59
esc	-60
escrib	-61
escribe	-62
▁Describe	-63
▁I	-64
us	-65
ation	-66
et	-67
▁Ex	-68
ur	-69
▁l	-70
il	-71
plain	-72
▁The	-73
▁Explain	-74
os	-75
ve	-76
▁(	-77
▁de	-78
▁pro	-79
▁re	-80
▁h	-81
un	-82
▁C	-83
▁g	-84
ol	-85
▁r	-86
▁1	-87
▁be	-88
▁P	-89
ut	-90
ul	-91
▁are	-92
od	-93
▁S	-94
▁n	-95
ment	-96
▁for	-97
ric	-98
ly	-99
ce	-100
um	-101
id	-102
ess	-103
her	-104
▁con	-105
qu	-106
▁W	-107
ow	-108
im	-109
ch	-110
▁=	-111
ity	-112
and	-113
▁as	-114
ge	-115
ate	-116
▁wh	-117
ir	-118
du	-119
▁or	-120
000	-121
ter	-122
ater	-123
▁R	-124
▁In	-125
▁v	-126
ect	-127
▁su	-128
▁com	-129
if	-130
▁B	-131
ant	-132
▁2	-133
▁M	-134
iv	-135
st	-136
▁inc	-137
ot	-138
act	-139
ig	-140
▁pric	-141
est	-142
▁on	-143
ers	-144
▁F	-145
ay	-146
▁al	-147
ble	-148
mand	-149
▁Wh	-150
▁by	-151
▁It	-152
▁ex	-153
ies	-154
▁at	-155
▁N	-156
▁st	-157
ith	-158
ure	-159
ue	-160
am	-161
oun	-162
ost	-163
▁with	-164
▁demand	-165
reas	-166
▁+	-167
▁it	-168
▁produ	-169
ad	-170
ver	-171
▁H	-172
▁can	-173
em	-174
▁water	-175
▁en	-176
ich	-177
,000	-178
ci	-179
ive	-180
▁•	-181
▁Th	-182
▁price	-183
ction	-184
per	-185
▁which	-186
▁per	-187
rom	-188
▁O	-189
▁&	-190
▁ch	-191
ast	-192
ill	-193
ical	-194
▁us	-195
ine	-196
con	-197
low	-198
▁What	-199
▁sh	-200
el	-201
ppl	-202
ear	-203
ort	-204
▁from	-205
ome	-206
▁that	-207
ore	-208
▁un	-209
▁y	-210
ust	-211
ap	-212
able	-213
ard	-214
ank	-215
▁i	-216
ist	-217
ount	-218
ff	-219
▁res	-220
▁go	-221
▁L	-222
ak	-223
__	-224
▁3	-225
▁G	-226
▁5	-227
▁increas	-228
▁suppl	-229
conom	-230
our	-231
here	-232
all	-233
▁-	-234
age	-235
▁comp	-236
lation	-237
ther	-238
cess	-239
▁le	-240
▁year	-241
actor	-242
ud	-243
ial	-244
▁cost	-245
▁met	-246
igh	-247
vel	-248
ac	-249
ual	-250
▁cont	-251
pos	-252
ange	-253
▁ha	-254
▁4	-255
ous	-256
red	-257
op	-258
end	-259
aus	-260
ary	-261
ated	-262
fer	-263
ts	-264
res	-265
ions	-266
▁ad	-267
▁he	-268
ub	-269
ag	-270
ple	-271
▁val	-272
▁supply	-273
▁cons	-274
▁will	-275
lect	-276
oul	-277
▁Pro	-278
flation	-279
ould	-280
▁not	-281
ere	-282
▁qu	-283
▁This	-284
▁so	-285
▁inter	-286
▁econom	-287
ces	-288
0.	-289
▁Rs	-290
▁other	-291
ros	-292
▁factor	-293
▁rate	-294
up	-295
ime	-296
▁comm	-297
ep	-298
so	-299
ject	-300
▁equ	-301
iz	-302
▁–	-303
▁10	-304
▁form	-305
der	-306
cc	-307
▁li	-308
▁me	-309
reci	-310
yst	-311
10	-312
▁am	-313
▁there	-314
▁we	-315
ec	-316
aw	-317
th	-318
▁value	-319
▁have	-320
erm	-321
▁mon	-322
iron	-323
▁bank	-324
▁also	-325
hod	-326
ise	-327
▁im	-328
▁ne	-329
▁po	-330
▁good	-331
ach	-332
ke	-333
ities	-334
gh	-335
ution	-336
ari	-337
aste	-338
ark	-339
og	-340
ition	-341
▁If	-342
▁pl	-343
port	-344
ating	-345
ans	-346
ese	-347
▁more	-348
ell	-349
ance	-350
▁dis	-351
▁dec	-352
ence	-353
ix	-354
viron	-355
ab	-356
iod	-357
pt	-358
vironment	-359
its	-360
▁cur	-361
▁has	-362
ffect	-363
▁sp	-364
▁used	-365
ys	-366
ates	-367
▁dep	-368
ystem	-369
art	-370
▁should	-371
▁inv	-372
▁quant	-373
▁process	-374
ult	-375
▁product	-376
ber	-377
resent	-378
▁cor	-379
ener	-380
50	-381
ress	-382
ii	-383
▁ind	-384
▁when	-385
arket	-386
▁prices	-387
hem	-388
▁increase	-389
ree	-390
own	-391
▁ag	-392
ey	-393
▁oil	-394
▁income	-395
▁dif	-396
▁rem	-397
ound	-398
ip	-399
▁time	-400
▁k	-401
▁pre	-402
▁amount	-403
--	-404
ass	-405
ics	-406
▁their	-407
ugh	-408
▁exp	-409
ax	-410
lud	-411
gan	-412
ause	-413
▁lo	-414
____	-415
▁se	-416
ide	-417
▁quantity	-418
ire	-419
▁vari	-420
▁bec	-421
▁out	-422
yp	-423
ons	-424
▁ass	-425
urn	-426
▁:	-427
cal	-428
ef	-429
ry	-430
ness	-431
▁all	-432
▁metal	-433
ven	-434
ase	-435
▁ab	-436
▁sal	-437
ace	-438
▁U	-439
▁may	-440
int	-441
▁sub	-442
wo	-443
▁En	-444
▁its	-445
▁inflation	-446
▁bo	-447
▁high	-448
▁change	-449
ens	-450
hemical	-451
▁period	-452
CO	-453
▁interest	-454
ign	-455
gine	-456
ixed	-457
rosion	-458
reciation	-459
▁production	-460
tern	-461
▁em	-462
▁they	-463
▁commod	-464
ph	-465
orm	-466
▁two	-467
ents	-468
▁sol	-469
▁project	-470
▁6	-471
▁Q	-472
cul	-473
▁100	-474
ments	-475
▁goods	-476
▁fol	-477
▁When	-478
gen	-479
▁consum	-480
pp	-481
rol	-482
ants	-483
ong	-484
▁market	-485
pert	-486
▁tem	-487
0,000	-488
umber	-489
▁follow	-490
ane	-491
gin	-492
arge	-493
ative	-494
▁tr	-495
▁fir	-496
▁like	-497
ardness	-498
▁curve	-499
yd	-500
▁8	-501
▁ser	-502
astic	-503
ved	-504
olog	-505
▁int	-506
aterial	-507
ame	-508
ding	-509
▁differ	-510
▁cal	-511
▁level	-512
▁money	-513
av	-514
ures	-515
velop	-516
▁gener	-517
oc	-518
ally	-519
▁elect	-520
rough	-521
ied	-522
▁co	-523
ubric	-524
▁corrosion	-525
▁There	-526
▁fun	-527
▁giv	-528
▁So	-529
▁such	-530
▁V	-531
▁sur	-532
▁environment	-533
ash	-534
▁act	-535
ced	-536
▁than	-537
▁method	-538
▁bet	-539
▁De	-540
▁det	-541
ium	-542
vern	-543
▁pol	-544
ature	-545
we	-546
vic	-547
▁ph	-548
▁invest	-549
▁Con	-550
▁Inc	-551
▁Bank	-552
12	-553
▁typ	-554
15	-555
ources	-556
▁material	-557
▁wor	-558
cy	-559
cos	-560
nual	-561
arb	-562
▁0.	-563
▁St	-564
▁man	-565
▁boil	-566
uel	-567
▁ox	-568
ang	-569
▁gro	-570
ween	-571
▁pay	-572
▁under	-573
▁between	-574
▁ac	-575
▁one	-576
▁meas	-577
▁mo	-578
▁redu	-579
ational	-580
▁if	-581
▁present	-582
▁et	-583
ific	-584
▁They	-585
▁years	-586
ight	-587
▁col	-588
▁propert	-589
alys	-590
▁due	-591
▁15	-592
▁includ	-593
▁number	-594
RR	-595
lastic	-596
erg	-597
put	-598
▁Com	-599
ility	-600
ici	-601
▁etc	-602
▁part	-603
▁these	-604
▁factors	-605
ible	-606
▁Ca	-607
gineer	-608
▁because	-609
ife	-610
▁over	-611
ose	-612
tain	-613
▁flow	-614
▁lead	-615
▁different	-616
▁gas	-617
ten	-618
vernment	-619
ind	-620
▁requ	-621
▁kn	-622
ite	-623
ors	-624
▁up	-625
	-626
ib	-627
▁but	-628
100	-629
▁ret	-630
▁point	-631
▁function	-632
ia	-633
se	-634
alled	-635
▁surf	-636
ms	-637
ages	-638
▁hel	-639
ample	-640
ffici	-641
ren	-642
cent	-643
ergy	-644
▁rise	-645
fin	-646
▁cl	-647
cial	-648
alysis	-649
▁where	-650
▁lubric	-651
▁through	-652
ings	-653
▁given	-654
▁called	-655
ery	-656
stit	-657
▁bas	-658
ack	-659
ade	-660
ram	-661
▁temper	-662
io	-663
▁K	-664
▁→	-665
▁12	-666
▁bu	-667
▁was	-668
▁depos	-669
▁react	-670
ru	-671
▁effect	-672
▁various	-673
▁depreciation	-674
1.	-675
▁following	-676
▁But	-677
▁sell	-678
▁hardness	-679
reat	-680
▁less	-681
▁commodity	-682
▁pos	-683
▁organ	-684
▁elastic	-685
▁Re	-686
▁develop	-687
▁tax	-688
▁same	-689
gineering	-690
fter	-691
orth	-692
▁Res	-693
ations	-694
▁determ	-695
les	-696
▁law	-697
▁Cost	-698
ydro	-699
▁help	-700
▁abo	-701
irect	-702
▁into	-703
ail	-704
▁acc	-705
▁add	-706
▁mak	-707
▁some	-708
▁count	-709
▁On	-710
change	-711
▁waste	-712
▁any	-713
▁tak	-714
▁chemical	-715
ra	-716
ired	-717
▁fixed	-718
▁import	-719
3)	-720
▁Mg	-721
▁Ind	-722
Cl	-723
atter	-724
▁7	-725
▁prof	-726
00,000	-727
,10	-728
arbon	-729
ption	-730
▁asset	-731
▁Ch	-732
▁servic	-733
atur	-734
▁system	-735
igher	-736
cosystem	-737
11	-738
ives	-739
rice	-740
▁cap	-741
▁comb	-742
▁energy	-743
▁resources	-744
ob	-745
oy	-746
tal	-747
▁caus	-748
ish	-749
▁cond	-750
▁life	-751
▁20	-752
▁Al	-753
ival	-754
ract	-755
reak	-756
▁return	-757
▁property	-758
▁CO	-759
▁increases	-760
sol	-761
ivid	-762
▁government	-763
rit	-764
vent	-765
▁These	-766
ygen	-767
▁investment	-768
rease	-769
▁fuel	-770
▁inf	-771
▁main	-772
ood	-773
SO	-774
fore	-775
quid	-776
▁end	-777
▁low	-778
▁remain	-779
erve	-780
▁occ	-781
▁pur	-782
▁economic	-783
▁oper	-784
ory	-785
ule	-786
▁partic	-787
yc	-788
▁first	-789
▁higher	-790
AC	-791
▁only	-792
▁remo	-793
▁worth	-794
ubl	-795
2)	-796
▁ii	-797
▁reg	-798
ology	-799
▁very	-800
▁contain	-801
ploy	-802
▁total	-803
▁types	-804
▁do	-805
▁For	-806
▁const	-807
ency	-808
▁calcul	-809
▁demanded	-810
▁“	-811
▁gr	-812
▁occur	-813
________	-814
ech	-815
▁PW	-816
enef	-817
ume	-818
ays	-819
▁prov	-820
▁important	-821
uch	-822
val	-823
uring	-824
▁Produ	-825
4)	-826
are	-827
ves	-828
▁rep	-829
▁Dis	-830
▁dist	-831
▁Price	-832
▁defin	-833
▁three	-834
▁work	-835
▁ro	-836
▁use	-837
▁most	-838
reatment	-839
▁materials	-840
▁elasticity	-841
▁>	-842
▁ear	-843
▁known	-844
ile	-845
▁each	-846
▁1.	-847
▁no	-848
▁sm	-849
fect	-850
▁app	-851
▁surface	-852
▁temperature	-853
ends	-854
▁Dep	-855
▁fall	-856
ressure	-857
▁altern	-858
▁ris	-859
▁measure	-860
▁bot	-861
▁est	-862
▁hand	-863
ublic	-864
omes	-865
▁unit	-866
..	-867
▁9	-868
ling	-869
▁cat	-870
▁cre	-871
▁boiler	-872
tic	-873
▁spec	-874
3.	-875
	-876
▁Un	-877
echn	-878
argin	-879
etary	-880
ivalent	-881
▁get	-882
ization	-883
▁economy	-884
▁analysis	-885
cale	-886
cept	-887
even	-888
▁adv	-889
▁after	-890
▁indust	-891
ds	-892
stitut	-893
▁Income	-894
▁employ	-895
▁result	-896
▁required	-897
fic	-898
▁fin	-899
ides	-900
▁hydro	-901
▁liquid	-902
ving	-903
▁cash	-904
▁must	-905
▁Na	-906
▁av	-907
redit	-908
▁consumer	-909
▁sa	-910
ider	-911
▁Thus	-912
atural	-913
ize	-914
ital	-915
▁rel	-916
▁produc	-917
eo	-918
icro	-919
▁0	-920
one	-921
▁di	-922
▁control	-923
▁,	-924
arg	-925
▁Cal	-926
▁vol	-927
▁long	-928
▁need	-929
▁term	-930
ential	-931
reases	-932
▁activ	-933
,00,000	-934
▁annual	-935
▁compound	-936
yl	-937
ries	-938
▁imp	-939
▁output	-940
:-	-941
rin	-942
▁buy	-943
▁des	-944
▁par	-945
ration	-946
1)	-947
sh	-948
ular	-949
▁economics	-950
ew	-951
cond	-952
▁ecosystem	-953
pose	-954
▁class	-955
20	-956
	-957
lution	-958
uation	-959
2.	-960
▁19	-961
ually	-962
▁banks	-963
▁group	-964
▁determin	-965
▁Ph	-966
▁Reserve	-967
▁By	-968
ross	-969
▁min	-970
▁been	-971
▁case	-972
▁large	-973
▁small	-974
▁Demand	-975
OH	-976
ared	-977
▁ext	-978
▁fil	-979
▁sod	-980
▁prep	-981
▁below	-982
ability	-983
▁profit	-984
▁country	-985
▁constant	-986
▁pressure	-987
%,	-988
eople	-989
ording	-990
▁direct	-991
0000	-992
pect	-993
ulph	-994
▁Comp	-995
▁combust	-996
TE	-997
uman	-998
▁down	-999
▁then	-1000
▁Water	-1001
▁effici	-1002
▁represent	-1003
),	-1004
osp	-1005
tect	-1006
▁Mon	-1007
▁made	-1008
▁means	-1009
▁affect	-1010
ribution	-1011
vironmental	-1012
	-1013
lor	-1014
reg	-1015
ched	-1016
▁iii	-1017
▁consider	-1018
▁exchange	-1019
▁relation	-1020
▁Inflation	-1021
ized	-1022
ward	-1023
▁non	-1024
▁sit	-1025
▁credit	-1026
aph	-1027
eed	-1028
▁Cont	-1029
▁acid	-1030
ertain	-1031
▁equivalent	-1032
ily	-1033
rim	-1034
und	-1035
▁No	-1036
ances	-1037
16	-1038
lu	-1039
,10,	-1040
aris	-1041
▁How	-1042
▁salts	-1043
rop	-1044
imit	-1045
▁ful	-1046
agram	-1047
▁public	-1048
▁services	-1049
45	-1050
co	-1051
old	-1052
▁OP	-1053
▁ob	-1054
▁ra	-1055
acter	-1056
itial	-1057
uture	-1058
▁benef	-1059
----	-1060
▁Sal	-1061
▁run	-1062
▁stud	-1063
▁trans	-1064
▁during	-1065
▁oxygen	-1066
▁diagram	-1067
▁development	-1068
erse	-1069
imum	-1070
solved	-1071
ternal	-1072
▁lower	-1073
▁subst	-1074
1,	-1075
▁op	-1076
▁agg	-1077
▁who	-1078
▁scale	-1079
ividual	-1080
▁curren	-1081
ological	-1082
▁deposits	-1083
▁ent	-1084
▁variable	-1085
▁formation	-1086
▁IRR	-1087
▁fig	-1088
▁sim	-1089
▁power	-1090
▁techn	-1091
OD	-1092
ick	-1093
▁At	-1094
ctane	-1095
▁short	-1096
ulation	-1097
2,	-1098
uls	-1099
▁br	-1100
ever	-1101
ibri	-1102
▁both	-1103
alance	-1104
ibrium	-1105
itions	-1106
ilibrium	-1107
▁account	-1108
▁includes	-1109
▁products	-1110
▁engineering	-1111
5.	-1112
ou	-1113
▁z	-1114
▁‘	-1115
atio	-1116
very	-1117
▁Pol	-1118
▁ste	-1119
▁order	-1120
▁1)	-1121
▁To	-1122
ning	-1123
zard	-1124
▁alk	-1125
iness	-1126
ingle	-1127
other	-1128
▁poss	-1129
▁using	-1130
▁percent	-1131
▁produced	-1132
18	-1133
OA	-1134
alth	-1135
ists	-1136
▁Law	-1137
▁oils	-1138
▁invol	-1139
▁Econom	-1140
▁people	-1141
▁generally	-1142
▁commodities	-1143
yn	-1144
itt	-1145
▁2.	-1146
▁ar	-1147
endit	-1148
▁show	-1149
▁India	-1150
▁above	-1151
▁appro	-1152
▁electr	-1153
▁Example	-1154
▁equilibrium	-1155
▁Environmental	-1156
5)	-1157
▁j	-1158
als	-1159
king	-1160
▁200	-1161
▁eas	-1162
▁appl	-1163
▁activities	-1164
▁Depreciation	-1165
▁Acc	-1166
▁ref	-1167
ysical	-1168
▁leads	-1169
▁purch	-1170
▁would	-1171
▁aggreg	-1172
▁individual	-1173
PP	-1174
(0.	-1175
ral	-1176
▁2)	-1177
vant	-1178
▁anod	-1179
vention	-1180
▁second	-1181
▁organic	-1182
▁combustion	-1183
ft	-1184
ier	-1185
atic	-1186
obic	-1187
▁air	-1188
▁saf	-1189
▁cell	-1190
arison	-1191
ically	-1192
agement	-1193
▁metals	-1194
▁protect	-1195
25	-1196
▁Ad	-1197
▁sc	-1198
ases	-1199
estic	-1200
itive	-1201
▁avail	-1202
▁human	-1203
enditure	-1204
ision	-1205
▁land	-1206
▁soil	-1207
▁chang	-1208
▁stage	-1209
▁aggregate	-1210
▁Y	-1211
▁Per	-1212
▁cyc	-1213
▁ions	-1214
▁parts	-1215
▁treatment	-1216
▁environmental	-1217
AN	-1218
oss	-1219
▁50	-1220
▁ri	-1221
ines	-1222
ludge	-1223
rinci	-1224
▁about	-1225
▁cause	-1226
▁solid	-1227
▁deposit	-1228
▁Engineering	-1229
40	-1230
rial	-1231
▁Sol	-1232
▁them	-1233
▁chain	-1234
▁electric	-1235
▁supplied	-1236
▁X	-1237
plet	-1238
ruct	-1239
▁10%	-1240
▁pet	-1241
vantages	-1242
)=	-1243
ern	-1244
▁Act	-1245
▁line	-1246
▁pers	-1247
▁capital	-1248
▁measures	-1249
▁solution	-1250
4.	-1251
Na	-1252
aj	-1253
▁	-1254
▁He	-1255
▁Pb	-1256
imes	-1257
▁new	-1258
ganic	-1259
▁free	-1260
▁many	-1261
arginal	-1262
▁EAC	-1263
ified	-1264
▁equal	-1265
omestic	-1266
▁Annual	-1267
▁cathod	-1268
▁future	-1269
	-1270
ety	-1271
pit	-1272
otal	-1273
▁(0.	-1274
▁Mod	-1275
erobic	-1276
▁Banks	-1277
recipit	-1278
ues	-1279
▁mg	-1280
aces	-1281
mosp	-1282
ship	-1283
vert	-1284
ivity	-1285
▁make	-1286
▁Break	-1287
▁Gener	-1288
▁those	-1289
ination	-1290
▁efficiency	-1291
▁particular	-1292
).	-1293
23	-1294
NP	-1295
RE	-1296
de	-1297
ex	-1298
▁1,	-1299
▁25	-1300
water	-1301
▁disc	-1302
▁much	-1303
▁soap	-1304
▁Waste	-1305
▁added	-1306
▁single	-1307
▁defined	-1308
not	-1309
form	-1310
ressed	-1311
▁again	-1312
▁falls	-1313
▁sched	-1314
▁while	-1315
stitute	-1316
▁Product	-1317
▁monetary	-1318
▁relationship	-1319
Rs	-1320
by	-1321
the	-1322
▁Ag	-1323
ajor	-1324
ften	-1325
▁Pre	-1326
▁net	-1327
▁area	-1328
▁cust	-1329
▁shown	-1330
▁units	-1331
aracter	-1332
lection	-1333
zardous	-1334
▁Factor	-1335
▁certain	-1336
▁general	-1337
▁dissolved	-1338
ene	-1339
ful	-1340
cing	-1341
oint	-1342
▁BOD	-1343
▁Met	-1344
▁earn	-1345
▁mole	-1346
▁limit	-1347
▁sales	-1348
ruction	-1349
▁batter	-1350
▁produce	-1351
▁Hardness	-1352
▁approach	-1353
IC	-1354
▁cr	-1355
▁sum	-1356
ected	-1357
▁2000	-1358
▁CaCO	-1359
▁food	-1360
▁heat	-1361
▁size	-1362
▁break	-1363
▁costs	-1364
▁micro	-1365
▁shows	-1366
▁common	-1367
▁occurs	-1368
fill	-1369
▁che	-1370
▁mod	-1371
▁neg	-1372
ribut	-1373
▁mach	-1374
▁oxid	-1375
▁Elect	-1376
portion	-1377
▁compet	-1378
▁volume	-1379
90	-1380
IS	-1381
▁[	-1382
equ	-1383
urb	-1384
reen	-1385
imate	-1386
entral	-1387
raight	-1388
▁Inter	-1389
resence	-1390
▁formed	-1391
▁proble	-1392
▁Process	-1393
▁prepared	-1394
ck	-1395
out	-1396
▁Ass	-1397
▁does	-1398
▁cannot	-1399
▁payments	-1400
▁According	-1401
▁increasing	-1402
▁expenditure	-1403
▁Su	-1404
▁sl	-1405
▁250	-1406
▁set	-1407
▁grow	-1408
ercial	-1409
▁Where	-1410
▁major	-1411
▁sound	-1412
raction	-1413
iii	-1414
cium	-1415
ough	-1416
vage	-1417
ently	-1418
▁rece	-1419
▁balance	-1420
▁removed	-1421
8.	-1422
gr	-1423
	-1424
HCO	-1425
nes	-1426
▁We	-1427
ource	-1428
▁Cons	-1429
▁reas	-1430
▁temp	-1431
ipment	-1432
onents	-1433
▁50,000	-1434
▁Market	-1435
▁before	-1436
▁However	-1437
▁natural	-1438
centration	-1439
▁conditions	-1440
▁alternative	-1441
ok	-1442
200	-1443
icy	-1444
row	-1445
oreign	-1446
▁gases	-1447
▁start	-1448
▁engine	-1449
VC	-1450
▁4.	-1451
▁Ar	-1452
iner	-1453
▁sav	-1454
▁ratio	-1455
▁custom	-1456
▁rising	-1457
▁depends	-1458
▁decision	-1459
▁negative	-1460
▁pollution	-1461
led	-1462
isms	-1463
▁Net	-1464
ither	-1465
▁firm	-1466
▁pass	-1467
fficient	-1468
▁current	-1469
▁perfect	-1470
▁service	-1471
▁projects	-1472
▁consumption	-1473
14	-1474
30	-1475
ON	-1476
me	-1477
any	-1478
osph	-1479
▁Det	-1480
▁att	-1481
▁ign	-1482
ining	-1483
▁Find	-1484
atures	-1485
▁Fixed	-1486
▁Total	-1487
▁chlor	-1488
▁caused	-1489
▁sodium	-1490
▁electro	-1491
▁species	-1492
▁usually	-1493
▁precipit	-1494
▁available	-1495
,?	-1496
iss	-1497
5,000	-1498
▁shif	-1499
▁banking	-1500
▁becomes	-1501
▁physical	-1502
▁reaction	-1503
▁compounds	-1504
▁determine	-1505
get	-1506
duct	-1507
eful	-1508
▁deb	-1509
▁real	-1510
ficult	-1511
▁based	-1512
▁emuls	-1513
▁intern	-1514
▁within	-1515
▁external	-1516
▁increased	-1517
________________	-1518
6)	-1519
7.	-1520
oid	-1521
umn	-1522
▁3.	-1523
▁Sp	-1524
▁iv	-1525
epar	-1526
▁Fuel	-1527
▁full	-1528
▁take	-1529
▁well	-1530
50,000	-1531
▁terms	-1532
▁employment	-1533
ox	-1534
500	-1535
ARR	-1536
lut	-1537
ock	-1538
▁3)	-1539
▁med	-1540
▁loss	-1541
▁sludge	-1542
▁marginal	-1543
▁presence	-1544
▁lubricants	-1545
▁Go	-1546
uble	-1547
were	-1548
▁you	-1549
waste	-1550
▁even	-1551
▁were	-1552
ferred	-1553
rimary	-1554
▁assum	-1555
▁place	-1556
▁separ	-1557
tenance	-1558
▁octane	-1559
▁foreign	-1560
▁national	-1561
60	-1562
edu	-1563
▁Se	-1564
ator	-1565
lish	-1566
▁pot	-1567
iesel	-1568
▁Rate	-1569
▁steam	-1570
▁effects	-1571
▁payment	-1572
▁Analysis	-1573
▁National	-1574
▁condition	-1575
▁customers	-1576
▁situation	-1577
ath	-1578
eol	-1579
▁ec	-1580
bers	-1581
ints	-1582
▁his	-1583
▁lab	-1584
▁Comm	-1585
▁helps	-1586
urities	-1587
▁accept	-1588
▁matter	-1589
▁series	-1590
▁provide	-1591
▁decrease	-1592
▁character	-1593
▁electrons	-1594
▁comparison	-1595
QQ	-1596
▁Im	-1597
ateg	-1598
ourse	-1599
riter	-1600
▁righ	-1601
▁taxes	-1602
▁assets	-1603
▁refers	-1604
▁select	-1605
▁soften	-1606
▁methods	-1607
▁straight	-1608
6.	-1609
80	-1610
ince	-1611
rigin	-1612
▁decl	-1613
▁eval	-1614
▁basis	-1615
▁being	-1616
▁input	-1617
pective	-1618
▁Calcul	-1619
▁remaining	-1620
22	-1621
70	-1622
OM	-1623
▁Z	-1624
,15	-1625
edi	-1626
iew	-1627
ush	-1628
▁30	-1629
▁Co	-1630
▁Ox	-1631
▁bi	-1632
onic	-1633
rict	-1634
▁Typ	-1635
▁fac	-1636
▁mix	-1637
ecial	-1638
▁qual	-1639
▁rais	-1640
▁resp	-1641
ablish	-1642
▁Determ	-1643
▁excess	-1644
▁reduce	-1645
▁collect	-1646
▁convert	-1647
▁initial	-1648
▁thereby	-1649
essential	-1650
▁difficult	-1651
.,	-1652
9.	-1653
SW	-1654
ld	-1655
▁Or	-1656
ilic	-1657
▁MSW	-1658
▁lay	-1659
aring	-1660
iving	-1661
▁type	-1662
reater	-1663
tained	-1664
▁shift	-1665
▁wages	-1666
ference	-1667
▁column	-1668
▁include	-1669
ification	-1670
▁countries	-1671
75	-1672
IA	-1673
In	-1674
ie	-1675
▁.	-1676
ian	-1677
tle	-1678
apor	-1679
ults	-1680
▁150	-1681
▁Cor	-1682
ident	-1683
▁Prof	-1684
▁Vari	-1685
atives	-1686
▁carbon	-1687
▁results	-1688
▁relative	-1689
▁components	-1690
▁J	-1691
gth	-1692
ins	-1693
▁Tr	-1694
▁fl	-1695
ware	-1696
▁raw	-1697
▁impro	-1698
▁loans	-1699
▁sulph	-1700
ication	-1701
usiness	-1702
▁Method	-1703
▁contin	-1704
▁source	-1705
▁another	-1706
▁subject	-1707
▁contains	-1708
▁surfaces	-1709
▁operating	-1710
▁industrial	-1711
▁proportion	-1712
3(	-1713
arm	-1714
ice	-1715
▁SO	-1716
acro	-1717
leum	-1718
▁day	-1719
▁what	-1720
roleum	-1721
▁right	-1722
ilities	-1723
ression	-1724
▁causes	-1725
▁course	-1726
▁groups	-1727
▁useful	-1728
▁example	-1729
▁Interest	-1730
▁positive	-1731
▁decreases	-1732
▁establish	-1733
▁particles	-1734
8)	-1735
qq	-1736
ike	-1737
▁16	-1738
▁FW	-1739
▁alkal	-1740
▁allow	-1741
▁enter	-1742
▁estim	-1743
▁every	-1744
▁flows	-1745
▁graph	-1746
ructure	-1747
▁Control	-1748
▁content	-1749
▁greases	-1750
▁greater	-1751
opulation	-1752
▁addition	-1753
▁possible	-1754
▁equipment	-1755
▁reactions	-1756
ert	-1757
uous	-1758
▁car	-1759
▁ele	-1760
unity	-1761
venue	-1762
▁Laws	-1763
▁mass	-1764
▁anode	-1765
▁rates	-1766
▁study	-1767
riteria	-1768
▁Effect	-1769
▁design	-1770
▁easily	-1771
▁inform	-1772
▁benefit	-1773
▁lubricant	-1774
▁processes	-1775
▁represents	-1776
%)	-1777
▁Us	-1778
▁Equ	-1779
▁Man	-1780
ended	-1781
ivers	-1782
▁hard	-1783
▁lime	-1784
▁tend	-1785
charge	-1786
verage	-1787
▁charg	-1788
▁divid	-1789
reasing	-1790
▁figure	-1791
▁policy	-1792
▁schedule	-1793
▁effective	-1794
▁essential	-1795
▁operation	-1796
▁properties	-1797
▁temperatures	-1798
2+	-1799
OB	-1800
ps	-1801
	-1802
ata	-1803
den	-1804
raw	-1805
fact	-1806
ived	-1807
omet	-1808
pers	-1809
ycle	-1810
▁Sup	-1811
▁iss	-1812
▁ren	-1813
acity	-1814
posal	-1815
▁Cash	-1816
▁conc	-1817
▁role	-1818
ending	-1819
urther	-1820
▁Under	-1821
▁categ	-1822
▁rises	-1823
▁Lubric	-1824
▁nature	-1825
▁theory	-1826
▁Natural	-1827
▁prevent	-1828
▁profits	-1829
▁reduces	-1830
▁Increase	-1831
▁internal	-1832
▁Economics	-1833
▁Ecosystem	-1834
▁containing	-1835
▁alternatives	-1836
17	-1837
26	-1838
33	-1839
▁Cr	-1840
▁Fe	-1841
ires	-1842
iding	-1843
inity	-1844
▁find	-1845
▁Sales	-1846
▁speed	-1847
▁charge	-1848
▁resist	-1849
position	-1850
▁changes	-1851
▁complet	-1852
▁quality	-1853
advantages	-1854
▁technology	-1855
QT	-1856
tt	-1857
hib	-1858
iel	-1859
oam	-1860
que	-1861
sor	-1862
▁Ac	-1863
▁Me	-1864
atis	-1865
iven	-1866
▁Tem	-1867
▁beh	-1868
iform	-1869
oring	-1870
▁0.00	-1871
▁inst	-1872
▁salt	-1873
econom	-1874
orific	-1875
▁Solid	-1876
▁often	-1877
▁growth	-1878
▁against	-1879
▁cathode	-1880
▁company	-1881
▁commercial	-1882
19	-1883
Ca	-1884
3)2	-1885
ior	-1886
por	-1887
riv	-1888
ude	-1889
ula	-1890
ring	-1891
ulti	-1892
▁sec	-1893
▁vis	-1894
▁done	-1895
▁slow	-1896
rivate	-1897
▁basic	-1898
▁influ	-1899
▁local	-1900
organic	-1901
▁atmosp	-1902
▁inputs	-1903
▁origin	-1904
▁molecul	-1905
▁considered	-1906
4,	-1907
AL	-1908
EE	-1909
800	-1910
lus	-1911
1000	-1912
apid	-1913
ilar	-1914
less	-1915
▁nps	-1916
▁rad	-1917
anent	-1918
▁Some	-1919
▁Such	-1920
▁film	-1921
▁give	-1922
isture	-1923
itable	-1924
▁Fuels	-1925
▁finan	-1926
▁forms	-1927
▁makes	-1928
▁diesel	-1929
▁safety	-1930
▁sample	-1931
▁Propert	-1932
▁related	-1933
▁Pollution	-1934
▁producers	-1935
▁substances	-1936
▁Disadvantages	-1937
):	-1938
7,	-1939
day	-1940
ism	-1941
ner	-1942
▁Sc	-1943
ient	-1944
read	-1945
ters	-1946
▁GNP	-1947
hibit	-1948
cosity	-1949
▁Hydro	-1950
cessary	-1951
▁living	-1952
▁calcium	-1953
ochemical	-1954
▁hydrogen	-1955
▁consumers	-1956
▁Production	-1957
▁classified	-1958
▁information	-1959
AS	-1960
OL	-1961
ION	-1962
ased	-1963
aust	-1964
ceed	-1965
rate	-1966
roph	-1967
▁500	-1968
▁aut	-1969
▁max	-1970
atisf	-1971
ufact	-1972
▁MARR	-1973
▁sign	-1974
▁soda	-1975
▁catal	-1976
▁exist	-1977
▁takes	-1978
▁trade	-1979
▁Number	-1980
▁hydroc	-1981
▁boiling	-1982
▁purpose	-1983
▁Chemical	-1984
▁expected	-1985
▁Determine	-1986
▁Therefore	-1987
▁organisms	-1988
▁petroleum	-1989
▁wastewater	-1990
3,	-1991
▁$	-1992
van	-1993
imin	-1994
rous	-1995
ural	-1996
aries	-1997
round	-1998
▁goes	-1999
▁open	-2000
▁phen	-2001
▁wast	-2002
▁zeol	-2003
arding	-2004
▁Gross	-2005
▁times	-2006
▁adverse	-2007
▁causing	-2008
inflation	-2009
mentation	-2010
▁Domestic	-2011
▁business	-2012
▁functions	-2013
▁maintenance	-2014
EM	-2015
alf	-2016
tak	-2017
▁60	-2018
▁Le	-2019
▁ke	-2020
1212	-2021
inal	-2022
pply	-2023
▁400	-2024
▁mem	-2025
ories	-2026
▁bran	-2027
▁prog	-2028
▁hence	-2029
▁raise	-2030
▁30,000	-2031
▁Module	-2032
▁comple	-2033
▁reason	-2034
▁Initial	-2035
▁Project	-2036
▁Suppose	-2037
▁battery	-2038
▁concern	-2039
▁further	-2040
▁minimum	-2041
▁without	-2042
▁equation	-2043
▁fraction	-2044
▁Generally	-2045
▁chemicals	-2046
▁calculated	-2047
+2	-2048
NN	-2049
400	-2050
ild	-2051
▁dil	-2052
ormal	-2053
▁bill	-2054
▁prom	-2055
ricult	-2056
▁sells	-2057
▁weight	-2058
▁contact	-2059
▁follows	-2060
▁respons	-2061
▁chlorine	-2062
▁involves	-2063
▁calculation	-2064
▁concentration	-2065
68	-2066
7)	-2067
PW	-2068
com	-2069
ler	-2070
▁ml	-2071
▁ut	-2072
back	-2073
otic	-2074
pens	-2075
vers	-2076
▁Dec	-2077
▁Sod	-2078
▁red	-2079
▁tre	-2080
oline	-2081
▁1000	-2082
▁poly	-2083
acking	-2084
▁among	-2085
▁range	-2086
▁regul	-2087
osphate	-2088
▁40,000	-2089
▁Oxygen	-2090
▁create	-2091
▁pollut	-2092
▁Factors	-2093
▁benefits	-2094
▁manufact	-2095
▁hazardous	-2096
▁potential	-2097
▁established	-2098
)2	-2099
nu	-2100
ense	-2101
esis	-2102
gree	-2103
ques	-2104
▁Tax	-2105
▁dam	-2106
▁how	-2107
etane	-2108
gines	-2109
ticip	-2110
tific	-2111
▁back	-2112
▁loan	-2113
▁reco	-2114
itives	-2115
▁found	-2116
▁state	-2117
▁buyers	-2118
▁either	-2119
▁making	-2120
iversity	-2121
tificial	-2122
▁central	-2123
▁engines	-2124
▁explain	-2125
▁stability	-2126
▁Government	-2127
▁substitute	-2128
95	-2129
---	-2130
▁5)	-2131
▁Bi	-2132
▁Em	-2133
▁OF	-2134
,15,	-2135
utri	-2136
▁Cap	-2137
▁Its	-2138
▁Ret	-2139
▁Main	-2140
▁heav	-2141
▁play	-2142
▁rain	-2143
▁safe	-2144
antity	-2145
▁Micro	-2146
▁Types	-2147
▁plant	-2148
▁rapid	-2149
▁taken	-2150
▁whole	-2151
▁Carbon	-2152
▁Princi	-2153
▁proper	-2154
▁dispers	-2155
▁selling	-2156
▁Variable	-2157
▁consists	-2158
▁specific	-2159
▁estimated	-2160
▁x	-2161
pts	-2162
▁Mo	-2163
apse	-2164
▁Gas	-2165
▁cle	-2166
▁off	-2167
ather	-2168
▁adop	-2169
▁burn	-2170
▁cool	-2171
▁know	-2172
▁move	-2173
▁perm	-2174
▁areas	-2175
▁decom	-2176
▁resid	-2177
▁contam	-2178
▁seller	-2179
▁Develop	-2180
▁affects	-2181
efficient	-2182
▁lubricating	-2183
)(	-2184
BR	-2185
mg	-2186
des	-2187
elf	-2188
ero	-2189
▁Cl	-2190
▁Ha	-2191
clus	-2192
ised	-2193
road	-2194
▁NPW	-2195
▁Non	-2196
▁Oil	-2197
▁Sim	-2198
▁way	-2199
cales	-2200
wards	-2201
▁acts	-2202
▁debt	-2203
▁gain	-2204
▁sect	-2205
▁zero	-2206
▁firms	-2207
▁stand	-2208
▁wants	-2209
▁words	-2210
▁Indust	-2211
▁Profit	-2212
▁Return	-2213
▁wealth	-2214
▁conduct	-2215
▁depreci	-2216
▁distill	-2217
▁sellers	-2218
▁special	-2219
stitution	-2220
▁directly	-2221
▁reducing	-2222
▁economies	-2223
▁financial	-2224
▁oxidation	-2225
▁producing	-2226
▁electrical	-2227
,8	-2228
NO	-2229
SP	-2230
700	-2231
ond	-2232
ppm	-2233
uss	-2234
▁4)	-2235
itch	-2236
like	-2237
ples	-2238
▁Fig	-2239
▁lit	-2240
alvan	-2241
nuity	-2242
orage	-2243
ropic	-2244
▁left	-2245
▁your	-2246
atings	-2247
enefit	-2248
istics	-2249
▁agent	-2250
▁alloc	-2251
▁indic	-2252
▁thick	-2253
riction	-2254
▁having	-2255
▁problem	-2256
▁removal	-2257
▁require	-2258
▁uniform	-2259
▁Monetary	-2260
▁complete	-2261
▁purchase	-2262
▁management	-2263
ee	-2264
nn	-2265
ify	-2266
▁Bo	-2267
▁IN	-2268
TETE	-2269
ided	-2270
izes	-2271
ules	-2272
vice	-2273
ynth	-2274
▁(2)	-2275
▁All	-2276
▁Cat	-2277
▁Col	-2278
▁Key	-2279
▁Rem	-2280
▁Val	-2281
▁bor	-2282
▁cop	-2283
chang	-2284
idity	-2285
olume	-2286
▁Land	-2287
▁hold	-2288
▁lose	-2289
▁mixt	-2290
▁turn	-2291
ensity	-2292
▁After	-2293
▁Macro	-2294
▁Money	-2295
▁avoid	-2296
icarbon	-2297
▁10,000	-2298
▁Keynes	-2299
▁Supply	-2300
▁adding	-2301
▁petrol	-2302
▁points	-2303
ynthesis	-2304
▁inhibit	-2305
▁employed	-2306
▁provides	-2307
▁Calculate	-2308
▁necessary	-2309
▁softening	-2310
▁substance	-2311
/(	-2312
An	-2313
CV	-2314
NT	-2315
te	-2316
tr	-2317
	-2318
pro	-2319
▁Ec	-2320
▁II	-2321
▁ax	-2322
▁ow	-2323
ouse	-2324
udit	-2325
▁adj	-2326
▁now	-2327
▁rev	-2328
▁upon	-2329
▁Silic	-2330
▁layer	-2331
▁multi	-2332
▁reser	-2333
▁sever	-2334
▁table	-2335
uations	-2336
▁extent	-2337
▁ground	-2338
▁plants	-2339
▁satisf	-2340
ometimes	-2341
▁boilers	-2342
▁formula	-2343
▁machine	-2344
▁perform	-2345
▁salvage	-2346
▁systems	-2347
▁involved	-2348
▁producer	-2349
▁declining	-2350
▁reduction	-2351
▁structure	-2352
▁therefore	-2353
▁protection	-2354
▁lubrication	-2355
▁distribution	-2356
)?	-2357
34	-2358
AB	-2359
eps	-2360
mon	-2361
ulf	-2362
ute	-2363
▁5.	-2364
▁Am	-2365
▁bl	-2366
000(	-2367
▁Mar	-2368
▁sus	-2369
4,000	-2370
▁Food	-2371
▁iron	-2372
▁load	-2373
▁rock	-2374
▁wage	-2375
rosive	-2376
▁Cycle	-2377
▁Value	-2378
▁heavy	-2379
▁simpl	-2380
▁store	-2381
▁0.003(	-2382
▁Charge	-2383
▁Direct	-2384
▁beings	-2385
▁filter	-2386
▁health	-2387
▁things	-2388
▁Another	-2389
▁mixture	-2390
▁reduced	-2391
economics	-2392
▁capacity	-2393
▁gasoline	-2394
▁industry	-2395
▁undertak	-2396
▁Corrosion	-2397
▁categories	-2398
▁industries	-2399
.”	-2400
AW	-2401
ted	-2402
▁Pl	-2403
▁ev	-2404
▁sw	-2405
ield	-2406
ites	-2407
push	-2408
side	-2409
▁bod	-2410
▁hyd	-2411
▁suc	-2412
cepts	-2413
rific	-2414
▁Redu	-2415
▁Time	-2416
▁bott	-2417
▁feed	-2418
▁inel	-2419
▁port	-2420
▁want	-2421
ishing	-2422
▁Trans	-2423
▁along	-2424
▁gives	-2425
▁mixed	-2426
▁oxide	-2427
alvanic	-2428
▁compos	-2429
▁person	-2430
▁switch	-2431
▁discuss	-2432
▁maximum	-2433
▁primary	-2434
▁friction	-2435
▁problems	-2436
▁transfer	-2437
▁according	-2438
▁additives	-2439
▁inelastic	-2440
▁perfectly	-2441
▁viscosity	-2442
▁determined	-2443
▁percentage	-2444
▁competition	-2445
13	-2446
AP	-2447
AT	-2448
DP	-2449
ES	-2450
▁DO	-2451
▁IT	-2452
grad	-2453
quif	-2454
▁our	-2455
heric	-2456
▁From	-2457
▁High	-2458
▁MgCl	-2459
▁Then	-2460
▁gets	-2461
▁plan	-2462
▁wide	-2463
▁earth	-2464
aerobic	-2465
▁height	-2466
▁Salvage	-2467
estruction	-2468
▁Hazardous	-2469
▁expressed	-2470
iodiversity	-2471
▁Management	-2472
▁Properties	-2473
▁Development	-2474
▁determining	-2475
28	-2476
FC	-2477
▁;	-2478
1.5	-2479
irc	-2480
oth	-2481
sec	-2482
▁ve	-2483
,10)	-2484
raph	-2485
▁Rec	-2486
▁cho	-2487
charg	-2488
rates	-2489
▁days	-2490
▁name	-2491
▁poor	-2492
▁sett	-2493
▁vary	-2494
▁	-2495
oaming	-2496
rittle	-2497
▁ident	-2498
soluble	-2499
unction	-2500
▁20,000	-2501
▁Margin	-2502
▁become	-2503
▁object	-2504
▁wastes	-2505
▁Organic	-2506
▁consist	-2507
▁defines	-2508
▁divided	-2509
▁private	-2510
▁1,00,000	-2511
▁Exchange	-2512
▁catalyst	-2513
▁measured	-2514
▁suitable	-2515
▁supplies	-2516
▁Advantages	-2517
▁atmosphere	-2518
▁difference	-2519
2%	-2520
46	-2521
49	-2522
ll	-2523
	-2524
TER	-2525
col	-2526
ink	-2527
ote	-2528
pal	-2529
▁40	-2530
▁Li	-2531
irst	-2532
▁(3)	-2533
▁Alk	-2534
▁Now	-2535
▁nit	-2536
▁too	-2537
Waste	-2538
agnes	-2539
ately	-2540
posed	-2541
▁100/	-2542
▁book	-2543
▁data	-2544
▁expl	-2545
20,000	-2546
arbons	-2547
hether	-2548
▁Techn	-2549
▁force	-2550
▁today	-2551
▁Proble	-2552
▁needed	-2553
▁saving	-2554
agnesium	-2555
▁Perfect	-2556
▁forming	-2557
▁possess	-2558
▁reserve	-2559
▁compared	-2560
▁contents	-2561
▁criteria	-2562
▁domestic	-2563
▁Institute	-2564
▁calorific	-2565
▁explained	-2566
▁including	-2567
▁courseware	-2568
▁securities	-2569
▁construction	-2570
1(	-2571
94	-2572
MC	-2573
ty	-2574
▁<	-2575
	-2576
	-2577
▁80	-2578
▁NO	-2579
	-2580
	-2581
	-2582
000-	-2583
ipts	-2584
omen	-2585
uted	-2586
▁(1)	-2587
▁EIA	-2588
▁EIS	-2589
▁Inv	-2590
▁sug	-2591
ittle	-2592
poses	-2593
ylene	-2594
▁buil	-2595
▁four	-2596
▁prev	-2597
▁rest	-2598
▁sold	-2599
▁tends	-2600
	-2601
▁highly	-2602
▁little	-2603
▁modern	-2604
▁simple	-2605
▁tropic	-2606
▁values	-2607
▁Central	-2608
▁anticip	-2609
▁workers	-2610
▁ignition	-2611
▁moisture	-2612
▁phenomen	-2613
▁ecological	-2614
▁respective	-2615
35	-2616
93	-2617
ME	-2618
use	-2619
▁18	-2620
SION	-2621
ards	-2622
▁10-	-2623
▁Fil	-2624
▁Reg	-2625
▁Sub	-2626
ences	-2627
haust	-2628
rolog	-2629
stand	-2630
▁Perm	-2631
▁axis	-2632
▁coal	-2633
▁slop	-2634
▁Phase	-2635
▁absor	-2636
▁begin	-2637
▁cycle	-2638
▁fuels	-2639
▁nutri	-2640
▁phase	-2641
angible	-2642
aration	-2643
tration	-2644
▁Electr	-2645
▁medium	-2646
▁moving	-2647
▁princi	-2648
▁raises	-2649
▁states	-2650
▁Silicon	-2651
▁improve	-2652
▁limited	-2653
▁program	-2654
▁savings	-2655
▁agricult	-2656
▁bicarbon	-2657
▁elements	-2658
▁landfill	-2659
▁position	-2660
istribution	-2661
▁evaluation	-2662
▁productivity	-2663
▁%	-2664
bur	-2665
emi	-2666
ird	-2667
oxy	-2668
▁-3	-2669
▁Au	-2670
▁Qu	-2671
▁el	-2672
▁gm	-2673
chan	-2674
cule	-2675
reme	-2676
▁800	-2677
▁Air	-2678
▁Dry	-2679
▁Use	-2680
▁emb	-2681
▁imm	-2682
▁own	-2683
▁she	-2684
ulfur	-2685
vered	-2686
ynthe	-2687
▁scar	-2688
▁trad	-2689
gether	-2690
▁Sulph	-2691
▁issue	-2692
▁labor	-2693
▁monit	-2694
▁whose	-2695
ributed	-2696
▁actual	-2697
▁adjust	-2698
▁agents	-2699
▁expand	-2700
▁levels	-2701
▁mechan	-2702
ynthetic	-2703
▁revenue	-2704
treatment	-2705
▁Electric	-2706
▁cathodic	-2707
▁requires	-2708
▁together	-2709
▁influence	-2710
geochemical	-2711
▁decreasing	-2712
▁inhibitors	-2713
▁phenomenon	-2714
▁population	-2715
)/	-2716
,9	-2717
2(	-2718
NG	-2719
PF	-2720
RD	-2721
go	-2722
xt	-2723
,7,	-2724
10%	-2725
10)	-2726
QPP	-2727
air	-2728
amm	-2729
cyc	-2730
ets	-2731
for	-2732
ita	-2733
▁5%	-2734
....	-2735
cies	-2736
ircu	-2737
ping	-2738
rect	-2739
sect	-2740
ways	-2741
▁dry	-2742
,000)	-2743
eping	-2744
ising	-2745
▁6000	-2746
▁CaCl	-2747
▁More	-2748
▁best	-2749
▁next	-2750
▁stat	-2751
▁view	-2752
elling	-2753
esides	-2754
mental	-2755
quifer	-2756
rength	-2757
▁Since	-2758
▁final	-2759
▁model	-2760
▁recyc	-2761
▁refin	-2762
clusive	-2763
eration	-2764
▁System	-2765
▁expect	-2766
▁expens	-2767
▁mainly	-2768
▁unions	-2769
▁upward	-2770
urbidity	-2771
▁aerobic	-2772
▁amounts	-2773
▁exchang	-2774
▁incomes	-2775
▁several	-2776
▁smaller	-2777
▁sources	-2778
▁towards	-2779
▁working	-2780
▁accounts	-2781
▁included	-2782
▁produces	-2783
▁rational	-2784
▁reserves	-2785
▁subjects	-2786
iminishing	-2787
▁Sometimes	-2788
▁calculate	-2789
▁corrosive	-2790
▁developed	-2791
▁substitut	-2792
▁pollutants	-2793
▁coefficient	-2794
▁composition	-2795
)-	-2796
,,	-2797
CH	-2798
PO	-2799
15)	-2800
lay	-2801
qpp	-2802
ined	-2803
ower	-2804
year	-2805
▁ion	-2806
▁rec	-2807
asing	-2808
▁Unit	-2809
▁cent	-2810
▁harm	-2811
▁thus	-2812
▁valu	-2813
▁since	-2814
▁vapor	-2815
▁Solids	-2816
▁cycles	-2817
▁damage	-2818
▁spread	-2819
▁though	-2820
▁ability	-2821
▁assumed	-2822
▁charged	-2823
▁alkaline	-2824
▁batteries	-2825
▁molecular	-2826
▁regarding	-2827
▁continuous	-2828
▁controlling	-2829
iogeochemical	-2830
.)	-2831
2-	-2832
150	-2833
AVC	-2834
aly	-2835
dle	-2836
ode	-2837
off	-2838
▁-2	-2839
▁7.	-2840
▁pa	-2841
(100	-2842
agul	-2843
face	-2844
life	-2845
onom	-2846
unic	-2847
yper	-2848
yram	-2849
▁Che	-2850
▁Cur	-2851
▁hol	-2852
▁ill	-2853
▁pat	-2854
▁vel	-2855
aning	-2856
arily	-2857
iddle	-2858
iscal	-2859
point	-2860
vices	-2861
▁Each	-2862
▁Flow	-2863
▁Lime	-2864
▁Meas	-2865
▁head	-2866
▁path	-2867
▁test	-2868
,10,4)	-2869
estion	-2870
irable	-2871
umbers	-2872
ustain	-2873
yramid	-2874
▁Hence	-2875
▁Noise	-2876
▁advan	-2877
▁miner	-2878
▁month	-2879
▁reach	-2880
▁steps	-2881
▁veloc	-2882
osphere	-2883
▁Consum	-2884
▁Energy	-2885
▁Liquid	-2886
▁Public	-2887
▁Screen	-2888
▁Sodium	-2889
▁branch	-2890
▁degree	-2891
▁plates	-2892
▁rating	-2893
▁Average	-2894
▁Elastic	-2895
▁Primary	-2896
▁complex	-2897
▁creates	-2898
▁rapidly	-2899
▁Economic	-2900
▁contamin	-2901
▁discount	-2902
▁molecule	-2903
▁Permanent	-2904
▁developing	-2905
▁electronic	-2906
▁generation	-2907
▁quantities	-2908
▁resistance	-2909
▁compression	-2910
yperinflation	-2911
55	-2912
6(	-2913
▁'	-2914
ann	-2915
inc	-2916
ole	-2917
▁26	-2918
▁DD	-2919
▁SS	-2920
▁od	-2921
etic	-2922
ises	-2923
requ	-2924
rodu	-2925
▁Min	-2926
▁ens	-2927
▁fas	-2928
▁fav	-2929
▁opt	-2930
ength	-2931
itted	-2932
▁1200	-2933
▁1500	-2934
▁Here	-2935
▁soci	-2936
▁soft	-2937
▁util	-2938
endent	-2939
▁behav	-2940
▁undes	-2941
posable	-2942
rinking	-2943
▁Period	-2944
▁faster	-2945
▁remove	-2946
▁solids	-2947
▁sulfur	-2948
▁techni	-2949
▁annuity	-2950
▁members	-2951
▁studies	-2952
▁original	-2953
▁discharge	-2954
▁generated	-2955
▁hydrocarbons	-2956
.8	-2957
79	-2958
EL	-2959
ti	-2960
ask	-2961
▁23	-2962
▁8.	-2963
▁ep	-2964
	-2965
	-2966
ABOA	-2967
OAOB	-2968
ales	-2969
anes	-2970
draw	-2971
gest	-2972
hold	-2973
onds	-2974
ried	-2975
wise	-2976
▁10,	-2977
▁198	-2978
▁Bas	-2979
▁Bef	-2980
▁Dif	-2981
▁One	-2982
▁Sur	-2983
▁You	-2984
▁aim	-2985
▁der	-2986
▁hap	-2987
▁put	-2988
▁rub	-2989
▁rup	-2990
▁sup	-2991
0000(	-2992
dings	-2993
fully	-2994
▁MgSO	-2995
▁NaOH	-2996
▁Remo	-2997
▁half	-2998
▁rele	-2999
▁task	-3000
▁ways	-3001
ission	-3002
quatic	-3003
▁Alkal	-3004
▁Green	-3005
▁gross	-3006
▁steel	-3007
▁world	-3008
actions	-3009
develop	-3010
essment	-3011
itional	-3012
▁Atmosp	-3013
▁Before	-3014
▁Cathod	-3015
▁Temper	-3016
▁bacter	-3017
▁mostly	-3018
▁opport	-3019
equently	-3020
▁Capital	-3021
▁Effects	-3022
▁desired	-3023
▁payback	-3024
▁reasons	-3025
▁sliding	-3026
▁question	-3027
▁receipts	-3028
▁residual	-3029
▁Treatment	-3030
▁adversely	-3031
▁otherwise	-3032
▁ecosystems	-3033
▁prevention	-3034
▁Temperature	-3035
▁application	-3036
▁combination	-3037
▁responsible	-3038
▁Macroeconomics	-3039
.1	-3040
42	-3041
63	-3042
dB	-3043
to	-3044
,00	-3045
erv	-3046
ext	-3047
ull	-3048
uri	-3049
▁1?	-3050
▁2,	-3051
bing	-3052
cour	-3053
▁Add	-3054
▁PbO	-3055
▁Rob	-3056
▁hot	-3057
auses	-3058
comes	-3059
istic	-3060
organ	-3061
price	-3062
▁Ther	-3063
▁alum	-3064
▁atom	-3065
▁body	-3066
▁conn	-3067
▁sedi	-3068
▁semi	-3069
▁shar	-3070
otroph	-3071
acrific	-3072
▁Causes	-3073
▁Invest	-3074
▁anodic	-3075
▁colour	-3076
▁normal	-3077
inerator	-3078
▁General	-3079
▁Present	-3080
▁remains	-3081
▁Cracking	-3082
▁Quantity	-3083
▁Solution	-3084
▁coatings	-3085
▁disposal	-3086
▁machines	-3087
▁obtained	-3088
rittlement	-3089
▁Reduction	-3090
▁depending	-3091
▁efficient	-3092
▁electroly	-3093
▁inorganic	-3094
▁presented	-3095
▁purchased	-3096
▁Comparison	-3097
▁accounting	-3098
▁facilities	-3099
▁competitive	-3100
▁inflationary	-3101
▁requirements	-3102
▁embrittlement	-3103
4%	-3104
84	-3105
Ni	-3106
iO	-3107
kg	-3108
pm	-3109
”.	-3110
UBR	-3111
URE	-3112
ake	-3113
hol	-3114
oly	-3115
way	-3116
▁1/	-3117
▁=3	-3118
▁er	-3119
▁fe	-3120
▁gl	-3121
▁ir	-3122
▁te	-3123
QPPQ	-3124
avel	-3125
▁15%	-3126
▁Bec	-3127
▁Est	-3128
▁GDP	-3129
▁Hyd	-3130
▁few	-3131
▁mob	-3132
▁pip	-3133
▁ppm	-3134
(100%	-3135
UBRIC	-3136
artic	-3137
itude	-3138
stitu	-3139
ulate	-3140
▁Hard	-3141
▁Prep	-3142
▁buys	-3143
▁draw	-3144
▁fail	-3145
▁fast	-3146
▁five	-3147
▁fund	-3148
▁gold	-3149
▁meet	-3150
▁repl	-3151
▁rich	-3152
▁side	-3153
▁site	-3154
,10,5)	-3155
infect	-3156
porary	-3157
▁5,000	-3158
▁Assum	-3159
▁Sound	-3160
▁Stand	-3161
▁carry	-3162
▁cases	-3163
▁chrom	-3164
▁light	-3165
▁needs	-3166
ildlife	-3167
version	-3168
▁LUBRIC	-3169
▁labour	-3170
▁region	-3171
▁Because	-3172
▁Besides	-3173
▁Calcium	-3174
▁applied	-3175
▁classes	-3176
▁correct	-3177
▁leading	-3178
▁radical	-3179
developed	-3180
▁Function	-3181
▁engineer	-3182
▁expenses	-3183
▁followed	-3184
▁strength	-3185
▁Principle	-3186
▁Selection	-3187
▁Temporary	-3188
▁concerned	-3189
▁intersect	-3190
▁preferred	-3191
▁Elasticity	-3192
▁Technology	-3193
▁acceptable	-3194
▁collection	-3195
▁compounded	-3196
▁preference	-3197
▁Biodiversity	-3198
▁consideration	-3199
▁hyperinflation	-3200
73	-3201
Mg	-3202
ND	-3203
RS	-3204
1,3	-3205
mal	-3206
xic	-3207
▁kg	-3208
	-3209
aced	-3210
aves	-3211
emic	-3212
over	-3213
plus	-3214
ream	-3215
▁(4)	-3216
▁Def	-3217
▁EAW	-3218
▁HCV	-3219
▁str	-3220
atics	-3221
atory	-3222
rated	-3223
▁Acid	-3224
▁Year	-3225
▁allo	-3226
▁diff	-3227
▁exce	-3228
▁grad	-3229
▁subs	-3230
ansion	-3231
ticles	-3232
▁-----	-3233
▁0.000	-3234
▁Lapse	-3235
▁audit	-3236
▁deals	-3237
▁decay	-3238
▁pract	-3239
▁15,000	-3240
▁Resins	-3241
▁Volume	-3242
▁applic	-3243
▁grease	-3244
▁impact	-3245
▁proced	-3246
▁stored	-3247
▁0.003($	-3248
▁average	-3249
▁diluted	-3250
▁exhaust	-3251
▁fulfill	-3252
▁sectors	-3253
▁success	-3254
▁zeolite	-3255
▁drinking	-3256
▁emulsion	-3257
▁referred	-3258
▁utilized	-3259
▁withdraw	-3260
▁switching	-3261
▁additional	-3262
▁opportunity	-3263
▁undesirable	-3264
(1	-3265
48	-3266
62	-3267
BC	-3268
CL	-3269
Fe	-3270
RO	-3271
TS	-3272
of	-3273
,8,	-3274
4.0	-3275
IRR	-3276
anj	-3277
ave	-3278
iox	-3279
let	-3280
ord	-3281
▁CH	-3282
▁eq	-3283
▁oq	-3284
2300	-3285
flow	-3286
orts	-3287
soci	-3288
urch	-3289
▁(19	-3290
▁(5)	-3291
▁ESP	-3292
▁End	-3293
▁NNP	-3294
▁don	-3295
▁had	-3296
▁mot	-3297
elves	-3298
ember	-3299
inder	-3300
rices	-3301
▁3000	-3302
▁With	-3303
▁larg	-3304
▁rule	-3305
▁tank	-3306
▁uses	-3307
▁wind	-3308
aneous	-3309
ferent	-3310
ircuit	-3311
▁10000	-3312
▁2,000	-3313
▁Given	-3314
▁Marsh	-3315
▁Ratio	-3316
▁Taste	-3317
▁Using	-3318
▁Which	-3319
▁noise	-3320
▁offer	-3321
▁Forest	-3322
▁Option	-3323
▁Sludge	-3324
▁associ	-3325
▁chains	-3326
▁reacts	-3327
▁taking	-3328
▁Content	-3329
▁Removal	-3330
▁Similar	-3331
▁aquifer	-3332
▁cycling	-3333
▁derived	-3334
▁ecology	-3335
▁equival	-3336
▁neither	-3337
▁persons	-3338
▁returns	-3339
▁running	-3340
▁suggest	-3341
▁sustain	-3342
▁Assuming	-3343
▁Hydrogen	-3344
▁Industry	-3345
▁Physical	-3346
▁activity	-3347
▁annually	-3348
▁bacteria	-3349
▁controls	-3350
▁downward	-3351
▁maintain	-3352
▁provided	-3353
▁recovery	-3354
▁selected	-3355
▁signific	-3356
▁tendency	-3357
▁zeolites	-3358
▁affecting	-3359
▁beginning	-3360
▁exclusive	-3361
▁nutrients	-3362
▁phosphate	-3363
▁typically	-3364
▁Commercial	-3365
▁Electronic	-3366
▁associated	-3367
▁converting	-3368
▁expression	-3369
▁protective	-3370
▁relatively	-3371
▁precipitate	-3372
▁manufacturing	-3373
▁characteristics	-3374
27	-3375
72	-3376
ne	-3377
oC	-3378
uc	-3379
▁)	-3380
12)	-3381
3.7	-3382
dis	-3383
ead	-3384
▁90	-3385
▁Ab	-3386
▁OH	-3387
acks	-3388
▁Aut	-3389
▁Des	-3390
▁big	-3391
▁say	-3392
▁why	-3393
	-3394
anger	-3395
athem	-3396
ening	-3397
istry	-3398
rogen	-3399
▁10%,	-3400
▁exam	-3401
▁fine	-3402
▁read	-3403
aining	-3404
ention	-3405
▁Chain	-3406
▁Chlor	-3407
▁Human	-3408
▁acids	-3409
▁close	-3410
▁evalu	-3411
▁river	-3412
▁rocks	-3413
▁stick	-3414
▁super	-3415
▁Future	-3416
▁Theory	-3417
▁analys	-3418
▁appear	-3419
▁assume	-3420
▁bottom	-3421
▁cetane	-3422
▁earned	-3423
▁govern	-3424
▁scarce	-3425
▁widely	-3426
pressure	-3427
▁Ecology	-3428
▁Revenue	-3429
▁passing	-3430
▁satisfy	-3431
▁undergo	-3432
organisms	-3433
▁affected	-3434
▁changing	-3435
▁currency	-3436
▁galvanic	-3437
▁sacrific	-3438
▁velocity	-3439
▁Transport	-3440
▁dispersed	-3441
▁Artificial	-3442
▁impurities	-3443
▁incinerator	-3444
▁individuals	-3445
▁agricultural	-3446
▁availability	-3447
▁distillation	-3448
▁particularly	-3449
▁respectively	-3450
En	-3451
IG	-3452
LE	-3453
NH	-3454
St	-3455
vt	-3456
▁/	-3457
	-3458
...	-3459
Com	-3460
RRO	-3461
eth	-3462
ges	-3463
gle	-3464
hic	-3465
iab	-3466
min	-3467
mtr	-3468
oda	-3469
pen	-3470
ton	-3471
▁1:	-3472
▁81	-3473
▁=6	-3474
▁Bl	-3475
▁pe	-3476
	-3477
1500	-3478
5000	-3479
ATER	-3480
dden	-3481
enes	-3482
eter	-3483
fall	-3484
lamm	-3485
ones	-3486
ores	-3487
resp	-3488
sequ	-3489
tage	-3490
▁Due	-3491
▁FIG	-3492
▁Int	-3493
▁Nit	-3494
▁PAN	-3495
▁Pay	-3496
▁Rel	-3497
▁bel	-3498
▁dig	-3499
▁ten	-3500
▁top	-3501
Given	-3502
ables	-3503
ceeds	-3504
inary	-3505
orary	-3506
ustic	-3507
▁5000	-3508
▁Inst	-3509
▁Pers	-3510
▁drop	-3511
▁easy	-3512
▁kcal	-3513
▁post	-3514
▁prop	-3515
▁seal	-3516
▁word	-3517
isions	-3518
utions	-3519
▁-2300	-3520
▁CORRO	-3521
▁Chang	-3522
▁First	-3523
▁Other	-3524
▁Taxes	-3525
▁Three	-3526
▁alone	-3527
▁black	-3528
▁cryst	-3529
▁liter	-3530
▁minim	-3531
▁notes	-3532
▁refer	-3533
▁stock	-3534
▁thems	-3535
iabatic	-3536
utually	-3537
▁Cetane	-3538
▁Curren	-3539
▁FIGURE	-3540
▁Pollut	-3541
▁Prices	-3542
▁Scales	-3543
▁Second	-3544
▁action	-3545
▁alloys	-3546
▁alumin	-3547
▁always	-3548
▁borrow	-3549
▁fiscal	-3550
▁illust	-3551
▁itself	-3552
▁larger	-3553
▁layers	-3554
▁longer	-3555
▁microb	-3556
▁middle	-3557
▁stress	-3558
▁sudden	-3559
agulants	-3560
▁Sources	-3561
▁adopted	-3562
▁cheques	-3563
▁devices	-3564
▁inverse	-3565
▁similar	-3566
▁society	-3567
▁started	-3568
▁subsequ	-3569
▁treated	-3570
▁voltage	-3571
▁whether	-3572
gradation	-3573
rological	-3574
▁Landfill	-3575
▁Material	-3576
▁advances	-3577
▁multiple	-3578
▁outcomes	-3579
▁received	-3580
▁refining	-3581
▁CORROSION	-3582
▁Dissolved	-3583
▁Phosphate	-3584
▁Similarly	-3585
▁anaerobic	-3586
▁engineers	-3587
▁molecules	-3588
▁occurring	-3589
▁permanent	-3590
▁temporary	-3591
▁transport	-3592
▁Alkalinity	-3593
▁Electrical	-3594
▁Population	-3595
▁monitoring	-3596
▁objectives	-3597
▁situations	-3598
▁themselves	-3599
▁understand	-3600
▁Atmospheric	-3601
▁diminishing	-3602
▁improvement	-3603
▁represented	-3604
▁organization	-3605
▁precipitation	-3606
So	-3607
TR	-3608
dt	-3609
ont	-3610
▁ho	-3611
▁jo	-3612
arts	-3613
cost	-3614
imal	-3615
wage	-3616
▁300	-3617
▁MAC	-3618
▁Out	-3619
▁den	-3620
▁flu	-3621
▁vap	-3622
ators	-3623
eries	-3624
ients	-3625
pects	-3626
▁8000	-3627
▁dire	-3628
▁list	-3629
▁near	-3630
▁stag	-3631
itting	-3632
pended	-3633
▁State	-3634
▁frequ	-3635
▁grain	-3636
▁manag	-3637
▁plate	-3638
▁third	-3639
▁toler	-3640
1(4,000	-3641
atively	-3642
iration	-3643
▁12,000	-3644
▁Octane	-3645
▁alkane	-3646
▁comput	-3647
▁entire	-3648
▁evapor	-3649
▁inflow	-3650
▁manner	-3651
chemical	-3652
reciable	-3653
▁Reactor	-3654
▁Selling	-3655
▁Surface	-3656
▁Thermal	-3657
▁portion	-3658
▁storage	-3659
▁Compound	-3660
▁condense	-3661
▁oiliness	-3662
▁separate	-3663
▁settling	-3664
▁sulfuric	-3665
▁treating	-3666
▁connected	-3667
▁direction	-3668
▁expansion	-3669
▁recycling	-3670
▁secondary	-3671
▁tolerance	-3672
▁allocation	-3673
▁consisting	-3674
▁functional	-3675
▁maintained	-3676
▁processing	-3677
▁destruction	-3678
▁hydrocarbon	-3679
▁institution	-3680
▁0.0001(4,000	-3681
▁Concentration	-3682
▁decomposition	-3683
)+	-3684
-2	-3685
.5	-3686
9%	-3687
AG	-3688
Al	-3689
ID	-3690
Px	-3691
	-3692
	-3693
163	-3694
9.0	-3695
HCl	-3696
che	-3697
cur	-3698
ees	-3699
ump	-3700
▁-1	-3701
▁=>	-3702
▁FC	-3703
▁OQ	-3704
▁PH	-3705
▁Sh	-3706
▁Zn	-3707
▁gu	-3708
▁pH	-3709
▁pw	-3710
bust	-3711
chie	-3712
oday	-3713
omer	-3714
oses	-3715
pact	-3716
rene	-3717
▁0.0	-3718
▁12,	-3719
▁AND	-3720
▁Cre	-3721
▁Exp	-3722
▁NPP	-3723
▁RCO	-3724
▁Two	-3725
▁gly	-3726
▁gra	-3727
▁hab	-3728
▁old	-3729
▁see	-3730
▁wax	-3731
enced	-3732
ional	-3733
worth	-3734
▁Book	-3735
▁CaSO	-3736
▁Coal	-3737
▁Form	-3738
▁Heat	-3739
▁PbSO	-3740
▁Prim	-3741
▁care	-3742
▁dise	-3743
▁held	-3744
▁impl	-3745
▁rent	-3746
▁weak	-3747
ivated	-3748
▁Basic	-3749
▁Depos	-3750
▁Point	-3751
▁Today	-3752
▁achie	-3753
▁bills	-3754
▁bonds	-3755
▁cells	-3756
▁check	-3757
▁comes	-3758
▁liber	-3759
▁mobil	-3760
▁offic	-3761
▁rupee	-3762
▁soaps	-3763
▁thing	-3764
▁vehic	-3765
400,000	-3766
50,000)	-3767
ertical	-3768
reement	-3769
▁Common	-3770
▁Credit	-3771
▁Effici	-3772
▁Impact	-3773
▁Indian	-3774
▁behalf	-3775
▁biotic	-3776
▁heated	-3777
▁latter	-3778
▁losses	-3779
▁mixing	-3780
▁scales	-3781
ationing	-3782
changein	-3783
▁Account	-3784
▁Aquatic	-3785
▁Density	-3786
▁Inciner	-3787
▁Storage	-3788
▁attract	-3789
▁concept	-3790
▁extreme	-3791
▁2,00,000	-3792
▁Marginal	-3793
▁Marshall	-3794
▁minerals	-3795
▁mutually	-3796
▁existence	-3797
▁marketing	-3798
▁principal	-3799
▁Efficiency	-3800
▁Equivalent	-3801
▁Prevention	-3802
▁convention	-3803
▁conversion	-3804
▁sufficient	-3805
▁electricity	-3806
▁preparation	-3807
▁significant	-3808
▁substitutes	-3809
▁conductivity	-3810
▁determination	-3811
0,	-3812
58	-3813
65	-3814
74	-3815
DS	-3816
gs	-3817
3.3	-3818
The	-3819
lig	-3820
ols	-3821
pol	-3822
uge	-3823
▁2?	-3824
▁=?	-3825
▁IC	-3826
▁Lt	-3827
▁OX	-3828
▁Qd	-3829
	-3830
ious	-3831
lear	-3832
zing	-3833
▁0.5	-3834
▁dur	-3835
▁far	-3836
▁smo	-3837
	-3838
7,000	-3839
avity	-3840
erior	-3841
ished	-3842
ledge	-3843
orter	-3844
reens	-3845
▁MgCO	-3846
▁dedu	-3847
▁wear	-3848
annual	-3849
encies	-3850
uclear	-3851
▁Anode	-3852
▁Robot	-3853
▁arrow	-3854
▁broad	-3855
▁funds	-3856
▁house	-3857
▁joint	-3858
▁never	-3859
▁choose	-3860
▁enough	-3861
▁hazard	-3862
▁likely	-3863
▁settle	-3864
▁sewage	-3865
otrophic	-3866
▁Protect	-3867
▁disulph	-3868
▁extract	-3869
▁harmful	-3870
▁overall	-3871
▁prevail	-3872
▁screens	-3873
▁shorter	-3874
▁cracking	-3875
▁deterior	-3876
▁graphite	-3877
▁starting	-3878
▁deposited	-3879
▁distilled	-3880
▁synthetic	-3881
▁mechanical	-3882
▁purchasing	-3883
▁calculations	-3884
▁sedimentation	-3885
▁redistribution	-3886
.0	-3887
2=	-3888
▁	-3889
e	-3890
i	-3891
s	-3892
t	-3893
n	-3894
a	-3895
r	-3896
o	-3897
c	-3898
l	-3899
h	-3900
d	-3901
u	-3902
p	-3903
m	-3904
f	-3905
:	-3906
A	-3907
w	-3908
g	-3909
b	-3910
y	-3911
0	-3912
k	-3913
v	-3914
.	-3915
,	-3916
x	-3917
T	-3918
D	-3919
1	-3920
E	-3921
)	-3922
2	-3923
I	-3924
C	-3925
(	-3926
P	-3927
?	-3928
-	-3929
S	-3930
5	-3931
O	-3932
R	-3933
=	-3934
3	-3935
W	-3936
q	-3937
4	-3938
N	-3939
B	-3940
M	-3941
F	-3942
H	-3943
+	-3944
/	-3945
6	-3946
L	-3947
8	-3948
7	-3949
•	-3950
G	-3951
&	-3952
9	-3953
%	-3954
z	-3955
j	-3956
_	-3957
	-3958
V	-3959
Q	-3960
–	-3961
U	-3962
	-3963
’	-3964
K	-3965
	-3966
→	-3967
	-3968
Y	-3969
	-3970
	-3971
>	-3972
X	-3973
'	-3974
;	-3975
“	-3976
”	-3977
Z	-3978
‘	-3979
[	-3980
	-3981
]	-3982
	-3983
$	-3984
¬	-3985
	-3986
*	-3987
J	-3988
<	-3989
	-3990
	-3991
	-3992
	-3993
	-3994
	-3995
	-3996
